{
  "version": "1.0",
  "truncation": null,
  "padding": null,
  "added_tokens": [
    {
      "id": 65504,
      "content": "<|begin_text|>",
      "single_word": false,
      "lstrip": false,
      "rstrip": false,
      "normalized": false,
      "special": true
    },
    {
      "id": 65505,
      "content": "<|end_text|>",
      "single_word": false,
      "lstrip": false,
      "rstrip": false,
      "normalized": false,
      "special": true
    },
    {
      "id": 65506,
      "content": "<|begin_header|>",
      "single_word": false,
      "lstrip": false,
      "rstrip": false,
      "normalized": false,
      "special": true
    },
    {
      "id": 65507,
      "content": "<|end_header|>",
      "single_word": false,
      "lstrip": false,
      "rstrip": false,
      "normalized": false,
      "special": true
    },
    {
      "id": 65508,
      "content": "<|end_turn|>",
      "single_word": false,
      "lstrip": false,
      "rstrip": false,
      "normalized": false,
      "special": true
    },
    {
      "id": 65509,
      "content": "<|pad|>",
      "single_word": false,
      "lstrip": false,
      "rstrip": false,
      "normalized": false,
      "special": true
    },
    {
      "id": 65510,
      "content": "<|fim_prefix|>",
      "single_word": false,
      "lstrip": false,
      "rstrip": false,
      "normalized": false,
      "special": true
    },
    {
      "id": 65511,
      "content": "<|fim_middle|>",
      "single_word": false,
      "lstrip": false,
      "rstrip": false,
      "normalized": false,
      "special": true
    },
    {
      "id": 65512,
      "content": "<|fim_suffix|>",
      "single_word": false,
      "lstrip": false,
      "rstrip": false,
      "normalized": false,
      "special": true
    },
    {
      "id": 65513,
      "content": "<|fim_pad|>",
      "single_word": false,
      "lstrip": false,
      "rstrip": false,
      "normalized": false,
      "special": true
    },
    {
      "id": 65514,
      "content": "<|...|>",
      "single_word": false,
      "lstrip": false,
      "rstrip": false,
      "normalized": false,
      "special": true
    },
    {
      "id": 65515,
      "content": "<|del|>",
      "single_word": false,
      "lstrip": false,
      "rstrip": false,
      "normalized": false,
      "special": true
    },
    {
      "id": 65516,
      "content": "<|c_0|>",
      "single_word": false,
      "lstrip": false,
      "rstrip": false,
      "normalized": false,
      "special": true
    },
    {
      "id": 65517,
      "content": "<|c_1|>",
      "single_word": false,
      "lstrip": false,
      "rstrip": false,
      "normalized": false,
      "special": true
    },
    {
      "id": 65518,
      "content": "<|c_2|>",
      "single_word": false,
      "lstrip": false,
      "rstrip": false,
      "normalized": false,
      "special": true
    },
    {
      "id": 65519,
      "content": "<|c_3|>",
      "single_word": false,
      "lstrip": false,
      "rstrip": false,
      "normalized": false,
      "special": true
    },
    {
      "id": 65520,
      "content": "<|c_4|>",
      "single_word": false,
      "lstrip": false,
      "rstrip": false,
      "normalized": false,
      "special": true
    },
    {
      "id": 65521,
      "content": "<|c_5|>",
      "single_word": false,
      "lstrip": false,
      "rstrip": false,
      "normalized": false,
      "special": true
    },
    {
      "id": 65522,
      "content": "<|c_6|>",
      "single_word": false,
      "lstrip": false,
      "rstrip": false,
      "normalized": false,
      "special": true
    },
    {
      "id": 65523,
      "content": "<|c_7|>",
      "single_word": false,
      "lstrip": false,
      "rstrip": false,
      "normalized": false,
      "special": true
    },
    {
      "id": 65524,
      "content": "<|c_8|>",
      "single_word": false,
      "lstrip": false,
      "rstrip": false,
      "normalized": false,
      "special": true
    },
    {
      "id": 65525,
      "content": "<|c_9|>",
      "single_word": false,
      "lstrip": false,
      "rstrip": false,
      "normalized": false,
      "special": true
    },
    {
      "id": 65526,
      "content": "<|?|>",
      "single_word": false,
      "lstrip": false,
      "rstrip": false,
      "normalized": false,
      "special": true
    },
    {
      "id": 65527,
      "content": "<|&|>",
      "single_word": false,
      "lstrip": false,
      "rstrip": false,
      "normalized": false,
      "special": true
    },
    {
      "id": 65528,
      "content": "<|!|>",
      "single_word": false,
      "lstrip": false,
      "rstrip": false,
      "normalized": false,
      "special": true
    },
    {
      "id": 65529,
      "content": "<|-|>",
      "single_word": false,
      "lstrip": false,
      "rstrip": false,
      "normalized": false,
      "special": true
    },
    {
      "id": 65530,
      "content": "<|+|>",
      "single_word": false,
      "lstrip": false,
      "rstrip": false,
      "normalized": false,
      "special": true
    },
    {
      "id": 65531,
      "content": "<|interrupt|>",
      "single_word": false,
      "lstrip": false,
      "rstrip": false,
      "normalized": false,
      "special": true
    },
    {
      "id": 65532,
      "content": "<|>>-|>",
      "single_word": false,
      "lstrip": false,
      "rstrip": false,
      "normalized": false,
      "special": true
    },
    {
      "id": 65533,
      "content": "<|-<<|>",
      "single_word": false,
      "lstrip": false,
      "rstrip": false,
      "normalized": false,
      "special": true
    },
    {
      "id": 65534,
      "content": "<|->>|>",
      "single_word": false,
      "lstrip": false,
      "rstrip": false,
      "normalized": false,
      "special": true
    },
    {
      "id": 65535,
      "content": "<|<<-|>",
      "single_word": false,
      "lstrip": false,
      "rstrip": false,
      "normalized": false,
      "special": true
    }
  ],
  "normalizer": null,
  "pre_tokenizer": {
    "type": "Sequence",
    "pretokenizers": [
      {
        "type": "Split",
        "pattern": {
          "Regex": "(\\\\n(?:e(?:wcommand|wenvironment|wline|wpage|wtheorem)|abla|e|eq|geq|gtr|leq|exists|ocite|oindent|olinebreak|onumber|opagebreak|ormalsize|ot(?!(?:ag\\b|\\b)))\\b|\\n+|\\\\n(?!\\b)|[ \\t]?(?:==|!=|<=|>=|<<|>>|\\*\\*|//|\\+=|-=|\\*=|/=|%=|&=|\\|=|\\^=|<<=|>>=|\\*\\*=|//=|:=|\\+\\+|--|[\\p{L}]+['’ʼ](?:\\p{L}+)\\b|\\\\[a-zA-Z]+|\\\\{|\\\\}|{|}|\\\\\\[|\\\\\\]|\\[|\\]|\\(|\\)|_+|\\||\\+|-|\\*|—|-|=|[.,!?;()]|\\$\\$?|`+|\\\"+|\\#+|\\p{N}+(?:st|nd|rd|th)|\\p{N}{1,1}|[^\\r\\n\\p{L}\\p{N}]?\\p{L}+|[\\p{P}\\p{S}]+)|\\s+|\\p{So})"
        },
        "behavior": "Removed",
        "invert": true
      },
      {
        "type": "ByteLevel",
        "add_prefix_space": false,
        "trim_offsets": true,
        "use_regex": false
      }
    ]
  },
  "post_processor": {
    "type": "TemplateProcessing",
    "single": [
      {
        "SpecialToken": {
          "id": "<|begin_text|>",
          "type_id": 0
        }
      },
      {
        "Sequence": {
          "id": "A",
          "type_id": 0
        }
      }
    ],
    "pair": [
      {
        "Sequence": {
          "id": "A",
          "type_id": 0
        }
      },
      {
        "Sequence": {
          "id": "B",
          "type_id": 1
        }
      }
    ],
    "special_tokens": {
      "<|begin_text|>": {
        "id": "<|begin_text|>",
        "ids": [
          65504
        ],
        "tokens": [
          "<|begin_text|>"
        ]
      },
      "<|end_text|>": {
        "id": "<|end_text|>",
        "ids": [
          65505
        ],
        "tokens": [
          "<|end_text|>"
        ]
      }
    }
  },
  "decoder": {
    "type": "ByteLevel",
    "add_prefix_space": true,
    "trim_offsets": true,
    "use_regex": true
  },
  "model": {
    "type": "BPE",
    "dropout": null,
    "unk_token": null,
    "continuing_subword_prefix": "",
    "end_of_word_suffix": "",
    "fuse_unk": false,
    "byte_fallback": false,
    "ignore_merges": false,
    "vocab": {
      "Ā": 0,
      "ā": 1,
      "Ă": 2,
      "ă": 3,
      "Ą": 4,
      "ą": 5,
      "Ć": 6,
      "ć": 7,
      "Ĉ": 8,
      "ĉ": 9,
      "Ċ": 10,
      "ċ": 11,
      "Č": 12,
      "č": 13,
      "Ď": 14,
      "ď": 15,
      "Đ": 16,
      "đ": 17,
      "Ē": 18,
      "ē": 19,
      "Ĕ": 20,
      "ĕ": 21,
      "Ė": 22,
      "ė": 23,
      "Ę": 24,
      "ę": 25,
      "Ě": 26,
      "ě": 27,
      "Ĝ": 28,
      "ĝ": 29,
      "Ğ": 30,
      "ğ": 31,
      "Ġ": 32,
      "!": 33,
      "\"": 34,
      "#": 35,
      "$": 36,
      "%": 37,
      "&": 38,
      "'": 39,
      "(": 40,
      ")": 41,
      "*": 42,
      "+": 43,
      ",": 44,
      "-": 45,
      ".": 46,
      "/": 47,
      "0": 48,
      "1": 49,
      "2": 50,
      "3": 51,
      "4": 52,
      "5": 53,
      "6": 54,
      "7": 55,
      "8": 56,
      "9": 57,
      ":": 58,
      ";": 59,
      "<": 60,
      "=": 61,
      ">": 62,
      "?": 63,
      "@": 64,
      "A": 65,
      "B": 66,
      "C": 67,
      "D": 68,
      "E": 69,
      "F": 70,
      "G": 71,
      "H": 72,
      "I": 73,
      "J": 74,
      "K": 75,
      "L": 76,
      "M": 77,
      "N": 78,
      "O": 79,
      "P": 80,
      "Q": 81,
      "R": 82,
      "S": 83,
      "T": 84,
      "U": 85,
      "V": 86,
      "W": 87,
      "X": 88,
      "Y": 89,
      "Z": 90,
      "[": 91,
      "\\": 92,
      "]": 93,
      "^": 94,
      "_": 95,
      "`": 96,
      "a": 97,
      "b": 98,
      "c": 99,
      "d": 100,
      "e": 101,
      "f": 102,
      "g": 103,
      "h": 104,
      "i": 105,
      "j": 106,
      "k": 107,
      "l": 108,
      "m": 109,
      "n": 110,
      "o": 111,
      "p": 112,
      "q": 113,
      "r": 114,
      "s": 115,
      "t": 116,
      "u": 117,
      "v": 118,
      "w": 119,
      "x": 120,
      "y": 121,
      "z": 122,
      "{": 123,
      "|": 124,
      "}": 125,
      "~": 126,
      "ġ": 127,
      "Ģ": 128,
      "ģ": 129,
      "Ĥ": 130,
      "ĥ": 131,
      "Ħ": 132,
      "ħ": 133,
      "Ĩ": 134,
      "ĩ": 135,
      "Ī": 136,
      "ī": 137,
      "Ĭ": 138,
      "ĭ": 139,
      "Į": 140,
      "į": 141,
      "İ": 142,
      "ı": 143,
      "Ĳ": 144,
      "ĳ": 145,
      "Ĵ": 146,
      "ĵ": 147,
      "Ķ": 148,
      "ķ": 149,
      "ĸ": 150,
      "Ĺ": 151,
      "ĺ": 152,
      "Ļ": 153,
      "ļ": 154,
      "Ľ": 155,
      "ľ": 156,
      "Ŀ": 157,
      "ŀ": 158,
      "Ł": 159,
      "ł": 160,
      "¡": 161,
      "¢": 162,
      "£": 163,
      "¤": 164,
      "¥": 165,
      "¦": 166,
      "§": 167,
      "¨": 168,
      "©": 169,
      "ª": 170,
      "«": 171,
      "¬": 172,
      "Ń": 173,
      "®": 174,
      "¯": 175,
      "°": 176,
      "±": 177,
      "²": 178,
      "³": 179,
      "´": 180,
      "µ": 181,
      "¶": 182,
      "·": 183,
      "¸": 184,
      "¹": 185,
      "º": 186,
      "»": 187,
      "¼": 188,
      "½": 189,
      "¾": 190,
      "¿": 191,
      "À": 192,
      "Á": 193,
      "Â": 194,
      "Ã": 195,
      "Ä": 196,
      "Å": 197,
      "Æ": 198,
      "Ç": 199,
      "È": 200,
      "É": 201,
      "Ê": 202,
      "Ë": 203,
      "Ì": 204,
      "Í": 205,
      "Î": 206,
      "Ï": 207,
      "Ð": 208,
      "Ñ": 209,
      "Ò": 210,
      "Ó": 211,
      "Ô": 212,
      "Õ": 213,
      "Ö": 214,
      "×": 215,
      "Ø": 216,
      "Ù": 217,
      "Ú": 218,
      "Û": 219,
      "Ü": 220,
      "Ý": 221,
      "Þ": 222,
      "ß": 223,
      "à": 224,
      "á": 225,
      "â": 226,
      "ã": 227,
      "ä": 228,
      "å": 229,
      "æ": 230,
      "ç": 231,
      "è": 232,
      "é": 233,
      "ê": 234,
      "ë": 235,
      "ì": 236,
      "í": 237,
      "î": 238,
      "ï": 239,
      "ð": 240,
      "ñ": 241,
      "ò": 242,
      "ó": 243,
      "ô": 244,
      "õ": 245,
      "ö": 246,
      "÷": 247,
      "ø": 248,
      "ù": 249,
      "ú": 250,
      "û": 251,
      "ü": 252,
      "ý": 253,
      "þ": 254,
      "ÿ": 255,
      "ĠĠ": 256,
      "th": 257,
      "in": 258,
      "Ġa": 259,
      "on": 260,
      "Ġth": 261,
      "re": 262,
      "ti": 263,
      "Ġthe": 264,
      "er": 265,
      "Ġ\\": 266,
      "en": 267,
      "ĠĠĠĠ": 268,
      "Ġ$": 269,
      "al": 270,
      "Ġs": 271,
      "or": 272,
      "Ġc": 273,
      "ma": 274,
      "Ġo": 275,
      "is": 276,
      "le": 277,
      "te": 278,
      "tion": 279,
      "Ġf": 280,
      "nd": 281,
      "ar": 282,
      "Ġw": 283,
      "es": 284,
      "Ġt": 285,
      "Ġof": 286,
      "Ġp": 287,
      "ra": 288,
      "ro": 289,
      "ta": 290,
      "Ġin": 291,
      "ing": 292,
      "Ġb": 293,
      "Ġd": 294,
      "Ġand": 295,
      "at": 296,
      "ig": 297,
      "el": 298,
      "la": 299,
      "ed": 300,
      "ĊĊ": 301,
      "Ġto": 302,
      "ic": 303,
      "Ġe": 304,
      "Ġis": 305,
      "ĠĠĠĠĠĠĠĠ": 306,
      "me": 307,
      "it": 308,
      "an": 309,
      "se": 310,
      "Ġn": 311,
      "math": 312,
      "Ġh": 313,
      "ou": 314,
      "si": 315,
      "ol": 316,
      "qu": 317,
      "Ġ(": 318,
      "^{": 319,
      "mp": 320,
      "Ġre": 321,
      "he": 322,
      "st": 323,
      "ent": 324,
      "ve": 325,
      "ce": 326,
      "\\b": 327,
      "Ġ=": 328,
      "de": 329,
      "Ġfor": 330,
      "Ġm": 331,
      "ation": 332,
      "ch": 333,
      "lo": 334,
      "ct": 335,
      "Ġg": 336,
      "Ġthat": 337,
      "\\math": 338,
      "su": 339,
      "ĠT": 340,
      "ly": 341,
      "Ġu": 342,
      "end": 343,
      "et": 344,
      "Ġ1": 345,
      "ver": 346,
      "ot": 347,
      "Ġcon": 348,
      "Ġ0": 349,
      "ph": 350,
      "ri": 351,
      "as": 352,
      "ith": 353,
      "cal": 354,
      "mb": 355,
      "eg": 356,
      "igh": 357,
      "Ġwe": 358,
      "ction": 359,
      "Ġi": 360,
      "Ġon": 361,
      "ci": 362,
      "ge": 363,
      "Ġpro": 364,
      "fra": 365,
      "Ġco": 366,
      "Ġbe": 367,
      "ft": 368,
      "il": 369,
      "ref": 370,
      "ight": 371,
      "egin": 372,
      "ur": 373,
      "Ġan": 374,
      "Ġma": 375,
      "Ġas": 376,
      "čĊ": 377,
      "ow": 378,
      "Ġwith": 379,
      "frac": 380,
      "ĠI": 381,
      "Ġl": 382,
      "Ġal": 383,
      "ĠS": 384,
      "Ġex": 385,
      "ul": 386,
      "od": 387,
      "Ġsu": 388,
      "pp": 389,
      "ted": 390,
      "ble": 391,
      "ut": 392,
      "Ġ&": 393,
      "ĠA": 394,
      "Ġv": 395,
      "\\r": 396,
      "im": 397,
      "ine": 398,
      "eta": 399,
      "res": 400,
      "am": 401,
      "Ġ2": 402,
      "om": 403,
      "Ġby": 404,
      "\\begin": 405,
      "id": 406,
      "Ġare": 407,
      "ore": 408,
      "ter": 409,
      "Ġ-": 410,
      "equ": 411,
      "\\in": 412,
      "ad": 413,
      "pe": 414,
      "Ġwh": 415,
      "un": 416,
      "ĠC": 417,
      "ir": 418,
      "\\la": 419,
      "ĠĊ": 420,
      "Ġde": 421,
      "ity": 422,
      "eq": 423,
      "\\end": 424,
      "Ġ+": 425,
      "if": 426,
      "ts": 427,
      "ĠThe": 428,
      "da": 429,
      "\\p": 430,
      "Ġit": 431,
      "tex": 432,
      "per": 433,
      "ment": 434,
      "Ġ{": 435,
      "iv": 436,
      "Ġy": 437,
      "left": 438,
      "bel": 439,
      "\\mathb": 440,
      "us": 441,
      "Ġor": 442,
      "to": 443,
      "Ġcan": 444,
      "ĠF": 445,
      "ĠB": 446,
      "Ġst": 447,
      "tic": 448,
      "ate": 449,
      "ĠL": 450,
      "dot": 451,
      "ĠP": 452,
      "mple": 453,
      "ran": 454,
      "rom": 455,
      "low": 456,
      "Ġha": 457,
      "equation": 458,
      "for": 459,
      "ome": 460,
      "Ġthis": 461,
      "\\mathcal": 462,
      "iz": 463,
      "ck": 464,
      "ers": 465,
      "pha": 466,
      "Ġme": 467,
      "ĠR": 468,
      "ĠM": 469,
      "nt": 470,
      "ure": 471,
      "Ġse": 472,
      "um": 473,
      "cite": 474,
      "The": 475,
      "alpha": 476,
      "text": 477,
      "pa": 478,
      "ĠĠĠĠĠĠĠĠĠĠĠĠĠĠĠĠ": 479,
      "\\c": 480,
      "\\frac": 481,
      "ĠH": 482,
      "tim": 483,
      "ign": 484,
      "ga": 485,
      "ss": 486,
      "\\s": 487,
      "ces": 488,
      "ĠN": 489,
      "Ġpo": 490,
      "ame": 491,
      "tial": 492,
      "ĠW": 493,
      "Ġat": 494,
      "Ġle": 495,
      "^{\\": 496,
      "ist": 497,
      "tions": 498,
      "int": 499,
      "Ġsh": 500,
      "tive": 501,
      "Ġfrom": 502,
      "**": 503,
      "mbda": 504,
      "ys": 505,
      "mu": 506,
      "ru": 507,
      "Ġ\\b": 508,
      "ĉĉ": 509,
      "sion": 510,
      "ich": 511,
      "\\right": 512,
      "ĠE": 513,
      "Ġx": 514,
      "Ġus": 515,
      "du": 516,
      "ite": 517,
      "\\n": 518,
      "ho": 519,
      "ence": 520,
      "Ġk": 521,
      "di": 522,
      "ĠĠĠ": 523,
      "Ġhave": 524,
      "fe": 525,
      "of": 526,
      "lu": 527,
      "ds": 528,
      "ĠTh": 529,
      "ther": 530,
      "Ġ\\math": 531,
      "Ġ3": 532,
      "ĠD": 533,
      "\\label": 534,
      "amma": 535,
      "elta": 536,
      "Ġne": 537,
      "are": 538,
      "pro": 539,
      "here": 540,
      "rou": 541,
      "times": 542,
      "\\\\": 543,
      "\\mathbb": 544,
      "ach": 545,
      "ell": 546,
      "con": 547,
      "Ġpar": 548,
      "line": 549,
      "lon": 550,
      "psi": 551,
      "act": 552,
      "unction": 553,
      "Ġ[": 554,
      "til": 555,
      "\\alpha": 556,
      "ab": 557,
      "ms": 558,
      "\\left": 559,
      "co": 560,
      "Ġsta": 561,
      "Ġ\\in": 562,
      "Ġwhich": 563,
      "\\,": 564,
      "umb": 565,
      "ari": 566,
      "Ġyou": 567,
      "igma": 568,
      "Ġcomp": 569,
      "der": 570,
      "alu": 571,
      "all": 572,
      "gle": 573,
      "po": 574,
      "~\\": 575,
      "phi": 576,
      "Ġ\\cite": 577,
      "right": 578,
      "\\su": 579,
      "ener": 580,
      "^{-": 581,
      "'s": 582,
      "ase": 583,
      "ill": 584,
      "fin": 585,
      "row": 586,
      "ap": 587,
      "psilon": 588,
      "ke": 589,
      "ĠG": 590,
      "ical": 591,
      "Ġapp": 592,
      "Ġ:": 593,
      "Ġun": 594,
      "rm": 595,
      "Ġfunction": 596,
      "$$": 597,
      "Ġnot": 598,
      "Ġif": 599,
      "##": 600,
      "ies": 601,
      "leq": 602,
      "op": 603,
      "\\v": 604,
      "ne": 605,
      "red": 606,
      "Ġ\\frac": 607,
      "ide": 608,
      "Ġch": 609,
      "Ġequ": 610,
      "Ġall": 611,
      "^\\": 612,
      "set": 613,
      "ollow": 614,
      "ld": 615,
      "Ġ\\end": 616,
      "tain": 617,
      "so": 618,
      "hat": 619,
      "\\d": 620,
      "tri": 621,
      "Ġ\"": 622,
      "ary": 623,
      "Ġset": 624,
      "dots": 625,
      "Ġfollow": 626,
      "Ġlo": 627,
      "\\}": 628,
      "Ġqu": 629,
      "Ġob": 630,
      "ound": 631,
      "gra": 632,
      "the": 633,
      "umber": 634,
      "tr": 635,
      "Ġmod": 636,
      "align": 637,
      "ĠĠĠĠĠĠĠĠĠĠĠĠ": 638,
      "Ġsuch": 639,
      "--": 640,
      "Ġ}": 641,
      "vel": 642,
      "Ġ4": 643,
      "able": 644,
      "ind": 645,
      "Ġra": 646,
      "Ġen": 647,
      "tilde": 648,
      "fig": 649,
      "ous": 650,
      "\\lambda": 651,
      "sta": 652,
      "Ġno": 653,
      "Ġ\\\\": 654,
      "ray": 655,
      "xi": 656,
      "pace": 657,
      "Ġdis": 658,
      "and": 659,
      "mma": 660,
      "ĠIn": 661,
      "fty": 662,
      "Ġ\\ref": 663,
      "cu": 664,
      "ant": 665,
      "Ġda": 666,
      "fic": 667,
      "Ġsa": 668,
      "ps": 669,
      "\\|": 670,
      "\\o": 671,
      "ex": 672,
      "theta": 673,
      "Ġhas": 674,
      "olu": 675,
      "nce": 676,
      "\\{": 677,
      "Ġthen": 678,
      "wo": 679,
      "Ġpa": 680,
      "Ġab": 681,
      "Ġimp": 682,
      "Ġad": 683,
      "Ġone": 684,
      "gamma": 685,
      "In": 686,
      "ations": 687,
      "orem": 688,
      "ĠO": 689,
      "ator": 690,
      "ular": 691,
      "je": 692,
      "par": 693,
      "elf": 694,
      "Ġsub": 695,
      "we": 696,
      "clu": 697,
      "sul": 698,
      "Ġla": 699,
      "ile": 700,
      "fere": 701,
      "ork": 702,
      "\\text": 703,
      "ty": 704,
      "Ġwhere": 705,
      "lic": 706,
      "ding": 707,
      "Ġr": 708,
      "ould": 709,
      "our": 710,
      "Ġdo": 711,
      "vi": 712,
      "out": 713,
      "Ġte": 714,
      "eqref": 715,
      "min": 716,
      "Ġwill": 717,
      "\\mathbf": 718,
      "ree": 719,
      "ong": 720,
      "tau": 721,
      "\\mu": 722,
      "time": 723,
      "Ġâ": 724,
      "Ġper": 725,
      "gh": 726,
      "Ġeach": 727,
      "``": 728,
      "Ġtwo": 729,
      "tes": 730,
      "Ġso": 731,
      "tation": 732,
      "array": 733,
      "Ġar": 734,
      "orm": 735,
      "ges": 736,
      "ak": 737,
      "og": 738,
      "Ġvalu": 739,
      "Ġexp": 740,
      "Ġdif": 741,
      "Ġ5": 742,
      "ĠWe": 743,
      "sure": 744,
      "\\l": 745,
      "Ġ\\begin": 746,
      "ess": 747,
      "ĠK": 748,
      "Ġgiv": 749,
      "Ġthere": 750,
      "ting": 751,
      "Ġj": 752,
      "Ġgener": 753,
      "ally": 754,
      "Th": 755,
      "Ġany": 756,
      "Ġhe": 757,
      "Ġres": 758,
      "os": 759,
      "Ġ\\c": 760,
      "Ġ|": 761,
      "Ġresul": 762,
      "Ġac": 763,
      "ample": 764,
      "section": 765,
      "item": 766,
      "ents": 767,
      "ctor": 768,
      "\\e": 769,
      "ĠV": 770,
      "Ġsome": 771,
      "arrow": 772,
      "ox": 773,
      "cess": 774,
      "\\sigma": 775,
      "li": 776,
      "Ġdata": 777,
      "^*": 778,
      "Ġshow": 779,
      "ard": 780,
      "rt": 781,
      "ĠU": 782,
      "irst": 783,
      "hi": 784,
      "\\pi": 785,
      "Ġnumber": 786,
      "ties": 787,
      "bb": 788,
      "Ġ\\la": 789,
      "We": 790,
      "\\beta": 791,
      "Ġinter": 792,
      "ser": 793,
      "tra": 794,
      "pt": 795,
      "bu": 796,
      "quad": 797,
      "Ġfi": 798,
      "omega": 799,
      "Ġmo": 800,
      "ments": 801,
      "Ġev": 802,
      "ĠThis": 803,
      "ince": 804,
      "ves": 805,
      "^{(": 806,
      "rans": 807,
      "\\par": 808,
      "bf": 809,
      "app": 810,
      "Ġdi": 811,
      "ated": 812,
      "Ġver": 813,
      "Ġmodel": 814,
      "Ġalso": 815,
      "Ġinte": 816,
      "sum": 817,
      "Ġspe": 818,
      "qrt": 819,
      "mm": 820,
      "ort": 821,
      "ose": 822,
      "\\gamma": 823,
      "ote": 824,
      "ay": 825,
      "\\theta": 826,
      "trix": 827,
      "Ġcor": 828,
      "sition": 829,
      "one": 830,
      "tical": 831,
      "def": 832,
      "Ġdiffere": 833,
      "yste": 834,
      "ion": 835,
      "Ġout": 836,
      "\\rm": 837,
      "Ġ\\eqref": 838,
      "ens": 839,
      "Ġvari": 840,
      "ility": 841,
      "Ġ\\right": 842,
      "put": 843,
      "Ġdefin": 844,
      "Ġbet": 845,
      "urn": 846,
      "les": 847,
      "Ġ*": 848,
      "ize": 849,
      "mega": 850,
      "oth": 851,
      "ast": 852,
      "its": 853,
      "age": 854,
      "ust": 855,
      "Ġits": 856,
      "Omega": 857,
      "arepsilon": 858,
      "au": 859,
      "\\tau": 860,
      "Ġwas": 861,
      "Ġgra": 862,
      "ie": 863,
      "Ġonly": 864,
      "Ġour": 865,
      "Ġtime": 866,
      "Ġcla": 867,
      "forma": 868,
      "led": 869,
      "Ġz": 870,
      "Ġ<": 871,
      "cre": 872,
      "\\rho": 873,
      "Ġusing": 874,
      "pon": 875,
      "cri": 876,
      "Ġtheir": 877,
      "yn": 878,
      "Ġgiven": 879,
      "Ġrep": 880,
      "lation": 881,
      "ĠX": 882,
      "\\delta": 883,
      "olds": 884,
      "Ġover": 885,
      "\\bf": 886,
      "ĠQ": 887,
      "Ġuse": 888,
      "sf": 889,
      "ced": 890,
      "mo": 891,
      "geq": 892,
      "Ġ6": 893,
      "\\sub": 894,
      "\\partial": 895,
      "\\ref": 896,
      "Ġfollowing": 897,
      "sub": 898,
      "\\leq": 899,
      "nder": 900,
      "dition": 901,
      "Ġcase": 902,
      "\\big": 903,
      "\\sum": 904,
      "Delta": 905,
      "now": 906,
      "Ġthese": 907,
      "Ġmore": 908,
      "gor": 909,
      "\\mathrm": 910,
      "Ġdes": 911,
      "olution": 912,
      "Ġ\\left": 913,
      "wide": 914,
      "cted": 915,
      "Ġpla": 916,
      "ĠĊĊ": 917,
      "Ġcomple": 918,
      "Ġop": 919,
      "proof": 920,
      "ef": 921,
      "Ġfirst": 922,
      "Ġbound": 923,
      "Ġele": 924,
      "Ġother": 925,
      "als": 926,
      "Ġman": 927,
      "Ġnon": 928,
      "ise": 929,
      "\\phi": 930,
      "tric": 931,
      "ween": 932,
      "Ġro": 933,
      "Ġinto": 934,
      "Ġ**": 935,
      "Ġproble": 936,
      "Ġsyste": 937,
      "ĠJ": 938,
      "Ġtra": 939,
      "\\P": 940,
      "eqn": 941,
      "Ġbut": 942,
      "bra": 943,
      "Ġwhen": 944,
      "perator": 945,
      "ension": 946,
      "ulti": 947,
      "cy": 948,
      "ok": 949,
      "Ġbetween": 950,
      "Ġli": 951,
      "^n": 952,
      "Ġ\\n": 953,
      "Ġcont": 954,
      "Gamma": 955,
      "Ġprov": 956,
      "\\omega": 957,
      "pend": 958,
      "sider": 959,
      "Ġcol": 960,
      "Ġ`": 961,
      "gu": 962,
      "cor": 963,
      "ry": 964,
      "Ġcal": 965,
      "Ġpre": 966,
      "frak": 967,
      "very": 968,
      "Ġfin": 969,
      "den": 970,
      "\\var": 971,
      "Ġ\\text": 972,
      "ll": 973,
      "Ġline": 974,
      "Ġappro": 975,
      "ruct": 976,
      "ĠFor": 977,
      "ud": 978,
      "âĢ": 979,
      "\\tilde": 980,
      "Ġ'": 981,
      "log": 982,
      "ĠĠĠĠĠĠ": 983,
      "Ġtrans": 984,
      "ality": 985,
      "Ġ\\leq": 986,
      "\\Omega": 987,
      "ric": 988,
      "Ġthan": 989,
      "ger": 990,
      "Let": 991,
      "stra": 992,
      "ors": 993,
      "\\ell": 994,
      "self": 995,
      "man": 996,
      "\\xi": 997,
      "verline": 998,
      "ack": 999,
      "thod": 1000,
      "Ġ\\mathbb": 1001,
      "Ġdist": 1002,
      "ving": 1003,
      "name": 1004,
      "Ġter": 1005,
      "\\cdot": 1006,
      "čĊčĊ": 1007,
      "ĠY": 1008,
      "space": 1009,
      "up": 1010,
      "Ġ\\mathcal": 1011,
      "ics": 1012,
      "_{": 1013,
      "Ġgrou": 1014,
      "Ġes": 1015,
      "ze": 1016,
      "ngle": 1017,
      "pl": 1018,
      "Ġfact": 1019,
      "Ġ$$": 1020,
      "ject": 1021,
      "cti": 1022,
      "Ġform": 1023,
      "sed": 1024,
      "main": 1025,
      "Ġreg": 1026,
      "rangle": 1027,
      "Ġstate": 1028,
      "Ġfe": 1029,
      "ating": 1030,
      "Ġsi": 1031,
      "Ġ\\e": 1032,
      "Ġ\\s": 1033,
      "\\varepsilon": 1034,
      "')": 1035,
      "\\hat": 1036,
      "Ġbas": 1037,
      "Ġ\\,": 1038,
      "ory": 1039,
      "ints": 1040,
      "fici": 1041,
      "Ġsee": 1042,
      "\\bar": 1043,
      "cc": 1044,
      "ymb": 1045,
      "olog": 1046,
      "sh": 1047,
      "Ġ7": 1048,
      "tit": 1049,
      "\\h": 1050,
      "ymbol": 1051,
      "ctive": 1052,
      "ative": 1053,
      "Ġobtain": 1054,
      "\\[": 1055,
      "Ġ8": 1056,
      "\\int": 1057,
      "Ġden": 1058,
      "old": 1059,
      "est": 1060,
      "ential": 1061,
      "form": 1062,
      "turn": 1063,
      "Ġexample": 1064,
      "Ġef": 1065,
      "ag": 1066,
      "mall": 1067,
      "ance": 1068,
      "Ġyour": 1069,
      "ish": 1070,
      "ization": 1071,
      "&\\": 1072,
      "ameter": 1073,
      "graph": 1074,
      "Ġph": 1075,
      "ssi": 1076,
      "\\Delta": 1077,
      "Ġlet": 1078,
      "Ġneed": 1079,
      "\\sqrt": 1080,
      "ĠPro": 1081,
      "Ġvalue": 1082,
      "Ġthey": 1083,
      "idth": 1084,
      "Ġwork": 1085,
      "\\infty": 1086,
      "eld": 1087,
      "Ġ_": 1088,
      "ub": 1089,
      "com": 1090,
      "ists": 1091,
      "\\eta": 1092,
      "pla": 1093,
      "Ġrela": 1094,
      "Ġup": 1095,
      "inu": 1096,
      "Ġhow": 1097,
      "Ġanal": 1098,
      "Ġspace": 1099,
      "vector": 1100,
      "Ġsame": 1101,
      "Ġmethod": 1102,
      "',": 1103,
      "eqnarray": 1104,
      "rc": 1105,
      "ĠLet": 1106,
      "Big": 1107,
      "Ġcur": 1108,
      "Ġpoint": 1109,
      "Ġ\\label": 1110,
      "ord": 1111,
      "mod": 1112,
      "val": 1113,
      "ear": 1114,
      "Ġclass": 1115,
      "Ġused": 1116,
      "mph": 1117,
      "\\item": 1118,
      "Ġknow": 1119,
      "tima": 1120,
      "Ġevery": 1121,
      "Ġpol": 1122,
      "\\wide": 1123,
      "ĊĊĊ": 1124,
      "orph": 1125,
      "cent": 1126,
      "Ġpres": 1127,
      "Ġproblem": 1128,
      "rk": 1129,
      "figure": 1130,
      "clude": 1131,
      "\\]": 1132,
      "ype": 1133,
      "Ġfind": 1134,
      "ni": 1135,
      "\\Gamma": 1136,
      "gorith": 1137,
      "ial": 1138,
      "Ġrepres": 1139,
      "Ġorder": 1140,
      "Ġget": 1141,
      "Ġfollows": 1142,
      "imension": 1143,
      "For": 1144,
      "ip": 1145,
      "\\epsilon": 1146,
      "ĠIt": 1147,
      "ning": 1148,
      "ĠIf": 1149,
      "ases": 1150,
      "infty": 1151,
      "ring": 1152,
      "\\times": 1153,
      "gth": 1154,
      "where": 1155,
      "Ġdifferent": 1156,
      "\\psi": 1157,
      "\\!": 1158,
      "ever": 1159,
      "Ġ9": 1160,
      "ten": 1161,
      "Ġmea": 1162,
      "abla": 1163,
      "Ġmulti": 1164,
      "Ġspeci": 1165,
      "vely": 1166,
      "Ġgo": 1167,
      "rough": 1168,
      "Ġboth": 1169,
      "Ġconsider": 1170,
      "tep": 1171,
      "ved": 1172,
      "Ġproper": 1173,
      "\\varphi": 1174,
      "ition": 1175,
      "Ġprodu": 1176,
      "ized": 1177,
      "umer": 1178,
      "\\cap": 1179,
      "ribu": 1180,
      "ĠLe": 1181,
      "Ġ\\sum": 1182,
      "ctions": 1183,
      "Ġmay": 1184,
      "\\mathfrak": 1185,
      "Ġmean": 1186,
      "tab": 1187,
      "\\k": 1188,
      "ĠThen": 1189,
      "ice": 1190,
      "respon": 1191,
      "formation": 1192,
      "Ġsim": 1193,
      "tisf": 1194,
      "ures": 1195,
      "pi": 1196,
      "ual": 1197,
      "Ġequation": 1198,
      "\\to": 1199,
      "ount": 1200,
      "gy": 1201,
      "cus": 1202,
      "refore": 1203,
      "circ": 1204,
      "Ġsystem": 1205,
      "Ġlar": 1206,
      "ĠRe": 1207,
      "ature": 1208,
      "sec": 1209,
      "ove": 1210,
      "Ġhigh": 1211,
      "ero": 1212,
      "position": 1213,
      "Ġ\\o": 1214,
      "comp": 1215,
      "La": 1216,
      "Ġpartic": 1217,
      "Ġrespe": 1218,
      "cond": 1219,
      "Ġ.": 1220,
      "This": 1221,
      "\\overline": 1222,
      "fa": 1223,
      "\\S": 1224,
      "oldsymbol": 1225,
      "table": 1226,
      "sc": 1227,
      "ian": 1228,
      "Ġproof": 1229,
      "matrix": 1230,
      "Ġresults": 1231,
      "work": 1232,
      "width": 1233,
      "ĠTheorem": 1234,
      "Ġ>": 1235,
      "Ġabout": 1236,
      "pri": 1237,
      "Ġ,": 1238,
      "Ġgraph": 1239,
      "Ġsatisf": 1240,
      "Ġchar": 1241,
      "Ġprocess": 1242,
      "ix": 1243,
      "ism": 1244,
      "Ġsp": 1245,
      "Ġsc": 1246,
      "Ġcho": 1247,
      "gebra": 1248,
      "\"\"": 1249,
      "raw": 1250,
      "Ġnew": 1251,
      "ability": 1252,
      "::": 1253,
      "Ġinde": 1254,
      "Ġ/": 1255,
      "ful": 1256,
      "ym": 1257,
      "Ġint": 1258,
      "Ġwould": 1259,
      "sing": 1260,
      "Ġ)": 1261,
      "'}": 1262,
      "Ġresult": 1263,
      "Ġassu": 1264,
      "Ġsign": 1265,
      "get": 1266,
      "Ġed": 1267,
      "sitive": 1268,
      "Ġcorrespon": 1269,
      "Ġmin": 1270,
      "ern": 1271,
      "\\geq": 1272,
      "chi": 1273,
      "Ġchan": 1274,
      "ength": 1275,
      "ib": 1276,
      "denti": 1277,
      "max": 1278,
      "Ġreal": 1279,
      "Ġdistribu": 1280,
      "ral": 1281,
      "ough": 1282,
      "Ġparameter": 1283,
      "Ġsol": 1284,
      "ormal": 1285,
      "Ġdefined": 1286,
      "\\m": 1287,
      "sim": 1288,
      "Ġvalues": 1289,
      "Ġcontain": 1290,
      "ink": 1291,
      "ĠSe": 1292,
      "Ġgeneral": 1293,
      "ob": 1294,
      "sk": 1295,
      "Ġlike": 1296,
      "appa": 1297,
      "ates": 1298,
      "ural": 1299,
      "eter": 1300,
      "ult": 1301,
      "Ġcomm": 1302,
      "valu": 1303,
      "ew": 1304,
      "Ġunder": 1305,
      "Ġ\\d": 1306,
      "err": 1307,
      "Ġclo": 1308,
      "Ġsequ": 1309,
      "Ġvector": 1310,
      "omorph": 1311,
      "Lambda": 1312,
      "Ġestima": 1313,
      "Ġfa": 1314,
      "lemma": 1315,
      "tal": 1316,
      "\\rangle": 1317,
      "rect": 1318,
      "####": 1319,
      "Ġrequ": 1320,
      "Ġstar": 1321,
      "vec": 1322,
      "tance": 1323,
      "ĠZ": 1324,
      "Ġabove": 1325,
      "Ġ\\(": 1326,
      "ha": 1327,
      "ere": 1328,
      "ĠCon": 1329,
      "ely": 1330,
      "\\cal": 1331,
      "mbox": 1332,
      "Ġsolution": 1333,
      "Ġmatrix": 1334,
      "ilar": 1335,
      "'$": 1336,
      "Ġinv": 1337,
      "Ġsupp": 1338,
      "Ġcre": 1339,
      "```": 1340,
      "Ġpri": 1341,
      "mpl": 1342,
      "Ġ\\{": 1343,
      "Ġstruct": 1344,
      "Ġtri": 1345,
      "gorithm": 1346,
      "pr": 1347,
      "round": 1348,
      "Ġran": 1349,
      "thm": 1350,
      "no": 1351,
      "fine": 1352,
      "be": 1353,
      "dic": 1354,
      "Ġwell": 1355,
      "cle": 1356,
      "sw": 1357,
      "Ġ\\emph": 1358,
      "Ġcomplex": 1359,
      "rodu": 1360,
      "ensure": 1361,
      "ĠĠĠĠĠ": 1362,
      "ensuremath": 1363,
      "Ġdoes": 1364,
      "Ġthrough": 1365,
      "Ġ\\l": 1366,
      "Ġsmall": 1367,
      "late": 1368,
      "\\ldots": 1369,
      "\\le": 1370,
      "Ġsur": 1371,
      "rue": 1372,
      "\\;": 1373,
      "Con": 1374,
      "ia": 1375,
      "Ġq": 1376,
      "vers": 1377,
      "col": 1378,
      "Ġcompu": 1379,
      "Ġbeen": 1380,
      "Ġobser": 1381,
      "Ġfinite": 1382,
      "Ġself": 1383,
      "tern": 1384,
      "oun": 1385,
      "size": 1386,
      "fer": 1387,
      "que": 1388,
      "Ġconsta": 1389,
      "Ġ\\cdot": 1390,
      "cts": 1391,
      "Ġprob": 1392,
      "Ġpoints": 1393,
      "fi": 1394,
      "Ġwor": 1395,
      "Ġbec": 1396,
      "tand": 1397,
      "ause": 1398,
      "Ġext": 1399,
      "Ġthem": 1400,
      "To": 1401,
      "&=": 1402,
      "Ġ\\to": 1403,
      "return": 1404,
      "\\Big": 1405,
      "nders": 1406,
      "Ġstud": 1407,
      "ue": 1408,
      "Ġconst": 1409,
      "Ġgroup": 1410,
      "Ġfunctions": 1411,
      "Re": 1412,
      "Ġvariable": 1413,
      "Ġ\\times": 1414,
      "entation": 1415,
      "Ġsince": 1416,
      "itial": 1417,
      "\\otimes": 1418,
      "ying": 1419,
      "Ġ\\v": 1420,
      "ndom": 1421,
      "\\boldsymbol": 1422,
      "ven": 1423,
      "Ġcontinu": 1424,
      "ĠLemma": 1425,
      "Ġeffe": 1426,
      "fter": 1427,
      "Ġta": 1428,
      "ĠAs": 1429,
      "mark": 1430,
      "Ġuni": 1431,
      "vert": 1432,
      "side": 1433,
      "Ġmultip": 1434,
      "Ġser": 1435,
      "Ġmax": 1436,
      "own": 1437,
      "Ġhis": 1438,
      "Ġpossi": 1439,
      "ness": 1440,
      "Ġidenti": 1441,
      "mon": 1442,
      "py": 1443,
      "Ġ\\int": 1444,
      "Ġbu": 1445,
      "''": 1446,
      "lem": 1447,
      "ines": 1448,
      "Ġlinear": 1449,
      "nderstand": 1450,
      "tt": 1451,
      "ert": 1452,
      "xt": 1453,
      "Pro": 1454,
      "\\section": 1455,
      "wh": 1456,
      "ĉĉĉ": 1457,
      "ron": 1458,
      "Ġoperator": 1459,
      "Ġfield": 1460,
      "Ġke": 1461,
      "data": 1462,
      "Ġexper": 1463,
      "Ġmy": 1464,
      ":=": 1465,
      "Ġima": 1466,
      "ater": 1467,
      "Ġnow": 1468,
      "\\bm": 1469,
      "Ġdeter": 1470,
      "Ġlim": 1471,
      "Ġdescri": 1472,
      "ression": 1473,
      "Ġmost": 1474,
      "energy": 1475,
      "Ġsecond": 1476,
      "Ġrequi": 1477,
      "Ġexists": 1478,
      "zeta": 1479,
      "bit": 1480,
      "Ġpositive": 1481,
      "ficient": 1482,
      "Ġlocal": 1483,
      "Ġhand": 1484,
      "~$": 1485,
      "Ġconne": 1486,
      "ities": 1487,
      "If": 1488,
      "Ġshould": 1489,
      "rite": 1490,
      "ival": 1491,
      "Ġlow": 1492,
      "ks": 1493,
      ":**": 1494,
      "ower": 1495,
      "rho": 1496,
      "Ġfra": 1497,
      "Ġtech": 1498,
      "Ġinformation": 1499,
      "Ġsing": 1500,
      "ner": 1501,
      "Ġ\\big": 1502,
      "mula": 1503,
      "Ġlear": 1504,
      "ynom": 1505,
      "heck": 1506,
      "let": 1507,
      "yle": 1508,
      "^k": 1509,
      "'t": 1510,
      "Ġbel": 1511,
      "ĠHow": 1512,
      "Ġhy": 1513,
      "Ġcondition": 1514,
      "\\,\\": 1515,
      "Ġparticular": 1516,
      "cm": 1517,
      "ically": 1518,
      "\\subsection": 1519,
      "ep": 1520,
      "lies": 1521,
      "Ġinclu": 1522,
      "Ġmany": 1523,
      "Ġmeasure": 1524,
      "//": 1525,
      "\\langle": 1526,
      "plit": 1527,
      "Ġeven": 1528,
      "Ġhel": 1529,
      "ĠFig": 1530,
      "Ġwere": 1531,
      "âĤ": 1532,
      "Ġredu": 1533,
      "Ġmap": 1534,
      "peratorname": 1535,
      "{\\": 1536,
      "Ġwhile": 1537,
      "ology": 1538,
      "ĠĠĊ": 1539,
      "ax": 1540,
      "Ġher": 1541,
      "__": 1542,
      "Ġtotal": 1543,
      "urther": 1544,
      "ymme": 1545,
      "rit": 1546,
      "Ġcalcu": 1547,
      "ining": 1548,
      "ive": 1549,
      "umbers": 1550,
      "ctively": 1551,
      "Ġincre": 1552,
      "fo": 1553,
      "arch": 1554,
      "Ġright": 1555,
      "Ġdepend": 1556,
      "As": 1557,
      "ĠEx": 1558,
      "Ġder": 1559,
      "Ġapproach": 1560,
      "ings": 1561,
      "umn": 1562,
      "cial": 1563,
      "Ġoptim": 1564,
      "velop": 1565,
      "\\|_{": 1566,
      "Ġcharact": 1567,
      "ĠBy": 1568,
      "theorem": 1569,
      "Ġterms": 1570,
      "Ġmain": 1571,
      "xima": 1572,
      "(\\": 1573,
      "Ġconstant": 1574,
      "^+": 1575,
      "Ġca": 1576,
      "ĠčĊ": 1577,
      "bo": 1578,
      "Ġtak": 1579,
      "\\Phi": 1580,
      "Ġ\\geq": 1581,
      "Ġsequence": 1582,
      "pre": 1583,
      "with": 1584,
      "Ġwa": 1585,
      "Ġ\\|": 1586,
      "Ġwhat": 1587,
      "ific": 1588,
      "Ġcould": 1589,
      "vity": 1590,
      "rightarrow": 1591,
      "antum": 1592,
      "\\log": 1593,
      "\\widetilde": 1594,
      "ull": 1595,
      "Ġam": 1596,
      "cur": 1597,
      "rate": 1598,
      "by": 1599,
      "ress": 1600,
      "asi": 1601,
      "ang": 1602,
      "\\)": 1603,
      "ision": 1604,
      "/\\": 1605,
      "ering": 1606,
      "Ġalgebra": 1607,
      "\\Lambda": 1608,
      "Ġ\\alpha": 1609,
      "Ġtype": 1610,
      "ency": 1611,
      "Ġprovid": 1612,
      "Ġ\\le": 1613,
      "Ġscal": 1614,
      "over": 1615,
      "ysis": 1616,
      "Ġerr": 1617,
      "Ġthree": 1618,
      "Ġminim": 1619,
      "ij": 1620,
      "Ġend": 1621,
      "map": 1622,
      "Ġinitial": 1623,
      "Ġrandom": 1624,
      "Ġdiv": 1625,
      "Ġdefine": 1626,
      "play": 1627,
      "Ġenergy": 1628,
      "\\kappa": 1629,
      "Ġlarge": 1630,
      "Ġconver": 1631,
      "hen": 1632,
      "Ġtest": 1633,
      "Ġmust": 1634,
      "Âł": 1635,
      "star": 1636,
      "\\chi": 1637,
      "ac": 1638,
      "Ġinteg": 1639,
      "rent": 1640,
      "ded": 1641,
      "etwork": 1642,
      "Ġcons": 1643,
      "Ġ\\quad": 1644,
      "ins": 1645,
      "style": 1646,
      "Ġway": 1647,
      "ross": 1648,
      "lock": 1649,
      "onumber": 1650,
      "ĊĊĊĊ": 1651,
      "Ġexist": 1652,
      "Ġlead": 1653,
      "Ġallow": 1654,
      "Ġdistribution": 1655,
      "istic": 1656,
      "TA": 1657,
      "\\lim": 1658,
      "Ġsection": 1659,
      "gs": 1660,
      "Ġdeg": 1661,
      "ick": 1662,
      "Ġunderstand": 1663,
      "Ġdimension": 1664,
      "Ġbased": 1665,
      "Ġalgorithm": 1666,
      "Ġfo": 1667,
      "Ġ&=": 1668,
      "Ġstructure": 1669,
      "Ġpair": 1670,
      "dx": 1671,
      "wa": 1672,
      "otential": 1673,
      "prime": 1674,
      "\\Sigma": 1675,
      "see": 1676,
      "swer": 1677,
      "ented": 1678,
      "Ġnumbers": 1679,
      "\\u": 1680,
      "Ġmaxim": 1681,
      "Ġ\\<": 1682,
      "ption": 1683,
      "Ġtop": 1684,
      "Ġprobability": 1685,
      "\\quad": 1686,
      "inal": 1687,
      "\\cite": 1688,
      "angle": 1689,
      "tices": 1690,
      "Ġcompon": 1691,
      "Ġlength": 1692,
      "Ġinput": 1693,
      "Ġpossible": 1694,
      "prop": 1695,
      "redic": 1696,
      "Ġmake": 1697,
      "Ġpaper": 1698,
      "qquad": 1699,
      "Ġpart": 1700,
      "Ġback": 1701,
      "ars": 1702,
      "Ġsize": 1703,
      "ditions": 1704,
      "not": 1705,
      "exp": 1706,
      "yp": 1707,
      "bility": 1708,
      "Ġfix": 1709,
      "\\caption": 1710,
      "Ġformula": 1711,
      "Ġelement": 1712,
      "tations": 1713,
      "box": 1714,
      "Ġide": 1715,
      "Ġsimilar": 1716,
      "\\ensuremath": 1717,
      "Ġbecause": 1718,
      "ased": 1719,
      "Ġprove": 1720,
      "ese": 1721,
      "try": 1722,
      "Ġstand": 1723,
      "Ġ--": 1724,
      "Ġ:=": 1725,
      "king": 1726,
      "Ġcorresponding": 1727,
      "ii": 1728,
      "ĠÎ": 1729,
      "Ġindu": 1730,
      "Ġdec": 1731,
      "Ġmon": 1732,
      "TE": 1733,
      "gram": 1734,
      "ĠSince": 1735,
      "Ġequival": 1736,
      "onal": 1737,
      "cing": 1738,
      "teq": 1739,
      "ĠAn": 1740,
      "Ġelements": 1741,
      "ĠDe": 1742,
      "des": 1743,
      "verse": 1744,
      "ging": 1745,
      "lying": 1746,
      "lot": 1747,
      "lear": 1748,
      "ati": 1749,
      "Ġins": 1750,
      "ren": 1751,
      "Ġdenote": 1752,
      "Ġnp": 1753,
      "\\dots": 1754,
      "vious": 1755,
      "umerate": 1756,
      "Ġ\\mathbf": 1757,
      "Ġsum": 1758,
      "Ġcir": 1759,
      "chan": 1760,
      "read": 1761,
      "Ġtheorem": 1762,
      "ĠCh": 1763,
      "ĠâĢ": 1764,
      "em": 1765,
      "Ġcode": 1766,
      "Ġ\\lambda": 1767,
      "rong": 1768,
      "\\vec": 1769,
      "Ġapproxima": 1770,
      "Ġ\\sub": 1771,
      "ĠĠĠĠĠĠĠĠĠĠĠĠĠĠĠĠĠĠĠĠ": 1772,
      "inst": 1773,
      "Ġzero": 1774,
      "Ġleft": 1775,
      "\\nabla": 1776,
      "==": 1777,
      "va": 1778,
      "seteq": 1779,
      "ton": 1780,
      "Ġcharacter": 1781,
      "lass": 1782,
      "Ġdevelop": 1783,
      "ined": 1784,
      "Ġques": 1785,
      "Ġwho": 1786,
      "Ġmat": 1787,
      "sequ": 1788,
      "Ġimpor": 1789,
      "\\zeta": 1790,
      "Ġshe": 1791,
      "face": 1792,
      "ode": 1793,
      "Ġpotential": 1794,
      "oll": 1795,
      "ynam": 1796,
      "Ġlog": 1797,
      "ĠTo": 1798,
      "uch": 1799,
      "ule": 1800,
      "upp": 1801,
      "lus": 1802,
      "Ġderiv": 1803,
      "Ġste": 1804,
      "ĠâĪ": 1805,
      "tant": 1806,
      "pendent": 1807,
      "ape": 1808,
      "Ġpower": 1809,
      "ensity": 1810,
      "oc": 1811,
      "Ġ\\h": 1812,
      "\\rightarrow": 1813,
      "Ġhelp": 1814,
      "elds": 1815,
      "Ġequal": 1816,
      "Ġquantum": 1817,
      "olutions": 1818,
      "Ġimplies": 1819,
      "Ġnat": 1820,
      "quare": 1821,
      "scr": 1822,
      "Ġpath": 1823,
      "Ġlist": 1824,
      "ynomial": 1825,
      "Ġassume": 1826,
      "atch": 1827,
      "ff": 1828,
      "It": 1829,
      "ward": 1830,
      "Ġcom": 1831,
      "graphics": 1832,
      "Ġ\\]": 1833,
      "Ġbo": 1834,
      "Ġlong": 1835,
      "Ġobject": 1836,
      "Ġremain": 1837,
      "ences": 1838,
      "soci": 1839,
      "vari": 1840,
      "dd": 1841,
      "textit": 1842,
      "lations": 1843,
      "Ġconditions": 1844,
      "enumerate": 1845,
      "âĢĻ": 1846,
      "Ġcomb": 1847,
      "finition": 1848,
      "Ġintrodu": 1849,
      "Ġsimple": 1850,
      "wise": 1851,
      "roup": 1852,
      "Ġproduct": 1853,
      "df": 1854,
      "Ġpr": 1855,
      "Ġcalled": 1856,
      "div": 1857,
      "Ġjust": 1858,
      "Ġnetwork": 1859,
      "rest": 1860,
      "Co": 1861,
      "Ġau": 1862,
      "rol": 1863,
      "igen": 1864,
      "Ġinequ": 1865,
      "sive": 1866,
      "minus": 1867,
      "Ġdiscus": 1868,
      "cludegraphics": 1869,
      "Ġgre": 1870,
      "\\pm": 1871,
      "thon": 1872,
      "Ġanswer": 1873,
      "Ġadd": 1874,
      "Ex": 1875,
      "Ġtheory": 1876,
      "dis": 1877,
      "Ġorig": 1878,
      "ily": 1879,
      "Ġanalysis": 1880,
      "Ġfound": 1881,
      "tics": 1882,
      "ath": 1883,
      "Ġshown": 1884,
      "less": 1885,
      "By": 1886,
      "ĠCo": 1887,
      "Ġrange": 1888,
      "Ġapplic": 1889,
      "fy": 1890,
      "new": 1891,
      "nces": 1892,
      "oid": 1893,
      "mpty": 1894,
      "ĠĠThe": 1895,
      "Ġhad": 1896,
      "Ġsen": 1897,
      "ons": 1898,
      "Ġholds": 1899,
      "cip": 1900,
      "Ġcent": 1901,
      "Ġterm": 1902,
      "lated": 1903,
      "Ġ==": 1904,
      "Ġbi": 1905,
      "ng": 1906,
      "ordin": 1907,
      "Ġag": 1908,
      "edge": 1909,
      "Ġobtained": 1910,
      "Ġspa": 1911,
      "Ġargu": 1912,
      "\\widehat": 1913,
      "Ġopen": 1914,
      "Ġmodels": 1915,
      "tional": 1916,
      "ild": 1917,
      "Ġhere": 1918,
      "Ġpe": 1919,
      "equiv": 1920,
      "ĠHowever": 1921,
      "^d": 1922,
      "ene": 1923,
      "Ġread": 1924,
      "cript": 1925,
      "print": 1926,
      "Ġstates": 1927,
      "Now": 1928,
      "Ġaddition": 1929,
      "else": 1930,
      "\\textbf": 1931,
      "Ġstep": 1932,
      "setminus": 1933,
      "els": 1934,
      "mis": 1935,
      "imp": 1936,
      "top": 1937,
      "Ġafter": 1938,
      "tice": 1939,
      "\\includegraphics": 1940,
      "finite": 1941,
      "ster": 1942,
      "Ġexact": 1943,
      "Ġrest": 1944,
      "partial": 1945,
      "Ġsample": 1946,
      "ain": 1947,
      "Ġexpe": 1948,
      "test": 1949,
      "Ġequations": 1950,
      "ĠSection": 1951,
      "tribu": 1952,
      "ategor": 1953,
      "ĠAl": 1954,
      "\\operatorname": 1955,
      "Ġge": 1956,
      "Ġproperties": 1957,
      "Ġassoci": 1958,
      "cept": 1959,
      "Ġ``": 1960,
      "dimension": 1961,
      "Ġparameters": 1962,
      "cup": 1963,
      "lect": 1964,
      "ext": 1965,
      "Since": 1966,
      "alle": 1967,
      "type": 1968,
      "Ġanaly": 1969,
      "\\x": 1970,
      "Ġ\\m": 1971,
      "Ġtake": 1972,
      "jective": 1973,
      "Ġlevel": 1974,
      "\\|\\": 1975,
      "ark": 1976,
      "Ġcontra": 1977,
      "Ġsymme": 1978,
      "Ġdetermin": 1979,
      "Ġdefinition": 1980,
      "ied": 1981,
      "\\t": 1982,
      "lish": 1983,
      "âľ": 1984,
      "Then": 1985,
      "itu": 1986,
      "âľĿ": 1987,
      "war": 1988,
      "Ġnext": 1989,
      "\"\"\"": 1990,
      "other": 1991,
      "Ġrespectively": 1992,
      "lat": 1993,
      "^i": 1994,
      "ensor": 1995,
      "und": 1996,
      "vation": 1997,
      "jo": 1998,
      "uto": 1999,
      "<\\": 2000,
      "###": 2001,
      "ass": 2002,
      "sla": 2003,
      "split": 2004,
      "\\mbox": 2005,
      "Ġlimit": 2006,
      "Ġerror": 2007,
      "Ġ\\sqrt": 2008,
      "Ġgu": 2009,
      "Ġspect": 2010,
      "Ġleast": 2011,
      "Ġwithin": 2012,
      "mooth": 2013,
      "Ġrespect": 2014,
      "ĉĉĉĉ": 2015,
      "ont": 2016,
      "ngu": 2017,
      "requ": 2018,
      "Ġpredic": 2019,
      "Ġthose": 2020,
      "omorphism": 2021,
      "uring": 2022,
      "from": 2023,
      "ither": 2024,
      "Ġradi": 2025,
      "ov": 2026,
      "ture": 2027,
      "Ġ&\\": 2028,
      "Ġweight": 2029,
      "fore": 2030,
      "']": 2031,
      "\\<": 2032,
      "~~": 2033,
      "Ġshows": 2034,
      "call": 2035,
      "egative": 2036,
      "indent": 2037,
      "Ġtas": 2038,
      "Ġsolutions": 2039,
      "Ġsets": 2040,
      "ĠThus": 2041,
      "lack": 2042,
      "Ġdeta": 2043,
      "Ġfam": 2044,
      "Ġsystems": 2045,
      "Ġnormal": 2046,
      "ĠĊĠ": 2047,
      "Ġoper": 2048,
      "Ġdire": 2049,
      "atures": 2050,
      "anti": 2051,
      "verage": 2052,
      "^{-\\": 2053,
      "Ġgives": 2054,
      "Ġ\\mu": 2055,
      "Ġmass": 2056,
      "Ġ\\beta": 2057,
      "Ġkey": 2058,
      "Ġtyp": 2059,
      "Ġbeing": 2060,
      "view": 2061,
      "Ġsingle": 2062,
      "Ġcy": 2063,
      "Ġmath": 2064,
      "Ġprovide": 2065,
      "ĠâĨ": 2066,
      "Ġent": 2067,
      "Ġhom": 2068,
      "Ġinsta": 2069,
      "Ġ\\P": 2070,
      "Ġwithout": 2071,
      "mat": 2072,
      "mi": 2073,
      "ĠĠĠĠĠĠĠĠĠĠĠĠĠĠĠĠĠĠĠĠĠĠĠĠ": 2074,
      "Ġsk": 2075,
      "ĠTherefore": 2076,
      "Ġmeans": 2077,
      "Ġfactor": 2078,
      "Ġconstru": 2079,
      "oindent": 2080,
      "Ġ\\sigma": 2081,
      "Ġnatural": 2082,
      "\\ge": 2083,
      "Ġexpression": 2084,
      "Vert": 2085,
      "yer": 2086,
      "Ġmethods": 2087,
      "odes": 2088,
      "Ġvery": 2089,
      "Ġdown": 2090,
      "thing": 2091,
      "\\draw": 2092,
      "Ġdistance": 2093,
      "Ġlangu": 2094,
      "\\mathsf": 2095,
      "lob": 2096,
      "Ġ\\delta": 2097,
      "Ġdue": 2098,
      "Ġindic": 2099,
      "rid": 2100,
      "Le": 2101,
      "ental": 2102,
      "file": 2103,
      "action": 2104,
      "bor": 2105,
      "Ġstandard": 2106,
      "Ġcost": 2107,
      "\\cdots": 2108,
      "reak": 2109,
      "Ġknown": 2110,
      "Ġunique": 2111,
      "Ġcontinuous": 2112,
      "Ġimpro": 2113,
      "fun": 2114,
      "Ġtre": 2115,
      "Ġstrong": 2116,
      "flo": 2117,
      "Ġaga": 2118,
      "Ġcomplete": 2119,
      "ques": 2120,
      "Ġtrue": 2121,
      "Ġfixed": 2122,
      "Ġdeno": 2123,
      "Ġsignific": 2124,
      "ource": 2125,
      "Ġedge": 2126,
      "ĠSo": 2127,
      "Ġ\\mathrm": 2128,
      "sto": 2129,
      "Ġspecific": 2130,
      "Ġ\\[": 2131,
      "Ġcoef": 2132,
      "Ġcommun": 2133,
      "tis": 2134,
      "Ġcar": 2135,
      "ration": 2136,
      "Ġdirect": 2137,
      "pic": 2138,
      "Ġ\\pi": 2139,
      "\\_": 2140,
      "ils": 2141,
      "iod": 2142,
      "ollary": 2143,
      "asing": 2144,
      "Ġrate": 2145,
      "Ġrelations": 2146,
      "Ġinvol": 2147,
      "io": 2148,
      "Ġmag": 2149,
      "Ġtimes": 2150,
      "Ġtemp": 2151,
      "ertain": 2152,
      "Ġadv": 2153,
      "Ġsuf": 2154,
      "Ġbounded": 2155,
      "Ġpers": 2156,
      "Ġvariables": 2157,
      "Ġlearning": 2158,
      "alse": 2159,
      "Ġass": 2160,
      "Ġcheck": 2161,
      "Ġreturn": 2162,
      "oplus": 2163,
      "Ġstudy": 2164,
      "Se": 2165,
      "Ġnode": 2166,
      "lambda": 2167,
      "iven": 2168,
      "bar": 2169,
      "itemize": 2170,
      "Ġcurrent": 2171,
      "^m": 2172,
      "center": 2173,
      "Ġinequality": 2174,
      "\\circ": 2175,
      "Ġregion": 2176,
      "av": 2177,
      "\\subset": 2178,
      "inter": 2179,
      "Ġeigen": 2180,
      "ices": 2181,
      "Ġ\\ldots": 2182,
      "Ġlat": 2183,
      "^T": 2184,
      "mption": 2185,
      "label": 2186,
      "eval": 2187,
      "arget": 2188,
      "ash": 2189,
      "Ġ\\phi": 2190,
      "Ġru": 2191,
      "cl": 2192,
      "Ġlast": 2193,
      "iform": 2194,
      "\\it": 2195,
      "Ġproperty": 2196,
      "ulation": 2197,
      "Ġcontrol": 2198,
      "Ġ\\theta": 2199,
      "ears": 2200,
      "nderline": 2201,
      "Ġbefore": 2202,
      "Ġtechni": 2203,
      "Ġunit": 2204,
      "lection": 2205,
      "which": 2206,
      "art": 2207,
      "apter": 2208,
      "Ġindependent": 2209,
      "Ġboundary": 2210,
      "Ġequivalent": 2211,
      "\\mathscr": 2212,
      "pmatrix": 2213,
      "^-": 2214,
      "Ġ\\infty": 2215,
      "Ġvertices": 2216,
      "dimensional": 2217,
      "Ġmeasu": 2218,
      "Ġrun": 2219,
      "Ġimage": 2220,
      "Ġinteger": 2221,
      "ata": 2222,
      "Ġcases": 2223,
      "rr": 2224,
      "Ġside": 2225,
      "Ġ\\tilde": 2226,
      "Ġwrite": 2227,
      "path": 2228,
      "ways": 2229,
      "Ġregular": 2230,
      "ared": 2231,
      "Ġprevious": 2232,
      "Ġvertex": 2233,
      "till": 2234,
      "ological": 2235,
      "Ġfil": 2236,
      "Ġplan": 2237,
      "tor": 2238,
      "ĠĠthe": 2239,
      "ason": 2240,
      "Ġquestion": 2241,
      "gence": 2242,
      "Ġ\\gamma": 2243,
      "ĠProposition": 2244,
      "Ġthus": 2245,
      "skip": 2246,
      "'_": 2247,
      "Ġbeha": 2248,
      "oreover": 2249,
      "Ġ\\rightarrow": 2250,
      "Ġimple": 2251,
      "Ġdynam": 2252,
      "Ġexperim": 2253,
      "Ġacc": 2254,
      "beta": 2255,
      "matical": 2256,
      "Ġvarious": 2257,
      "back": 2258,
      "reg": 2259,
      "^p": 2260,
      "Ġlook": 2261,
      "Ġ\\textbf": 2262,
      "cos": 2263,
      "inary": 2264,
      "mand": 2265,
      "formance": 2266,
      "Ġ\\otimes": 2267,
      "Ġoutput": 2268,
      "Ġpropo": 2269,
      "Ġchange": 2270,
      "^*$": 2271,
      "Ġdensity": 2272,
      "Ġmetric": 2273,
      "por": 2274,
      "bed": 2275,
      "ost": 2276,
      "ides": 2277,
      "mer": 2278,
      "Ġassociated": 2279,
      "Ġfurther": 2280,
      "Ġsimp": 2281,
      "sions": 2282,
      "edi": 2283,
      "Ġlower": 2284,
      "\\noindent": 2285,
      "Ġdegree": 2286,
      "thor": 2287,
      "cation": 2288,
      "pm": 2289,
      "ST": 2290,
      "erature": 2291,
      "thes": 2292,
      "linear": 2293,
      "\\vert": 2294,
      "gether": 2295,
      "inally": 2296,
      "osition": 2297,
      "tabular": 2298,
      "Ġfile": 2299,
      "Ġ\\rho": 2300,
      "Ġ\\hat": 2301,
      "uppose": 2302,
      "Ġcreate": 2303,
      "mathrm": 2304,
      "Ġgive": 2305,
      "model": 2306,
      "'(": 2307,
      "Ġpra": 2308,
      "Ġ\\rangle": 2309,
      "Ġcontains": 2310,
      "Ġevalu": 2311,
      "olon": 2312,
      "Ġintegra": 2313,
      "Ġ\\textit": 2314,
      "ĠHe": 2315,
      "Ġalong": 2316,
      "Ġsatisfies": 2317,
      "Ġcorre": 2318,
      "wedge": 2319,
      "Ġfun": 2320,
      "Ġdesign": 2321,
      "mbed": 2322,
      "Ġrespon": 2323,
      "Ġproblems": 2324,
      "Ġless": 2325,
      "\\%": 2326,
      "do": 2327,
      "Ġvis": 2328,
      "Ġstrate": 2329,
      "son": 2330,
      "Ġaction": 2331,
      "add": 2332,
      "Ġ\\cap": 2333,
      ":\\": 2334,
      "vir": 2335,
      "n't": 2336,
      "bound": 2337,
      "Ġval": 2338,
      "Ġimportant": 2339,
      "Ġref": 2340,
      "Ġsmooth": 2341,
      "Ġsuper": 2342,
      "pping": 2343,
      "cho": 2344,
      "Ġmom": 2345,
      "Ġlanguage": 2346,
      "Ġnumer": 2347,
      "Ġinterest": 2348,
      "ĠHere": 2349,
      "ĠApp": 2350,
      "Ġtext": 2351,
      "sian": 2352,
      "Ġeither": 2353,
      "forall": 2354,
      "class": 2355,
      "appro": 2356,
      "arphi": 2357,
      "Ġ\\;": 2358,
      "Ġelect": 2359,
      "Ġmuch": 2360,
      "value": 2361,
      "scal": 2362,
      "\\Psi": 2363,
      "Ġpresent": 2364,
      "uman": 2365,
      "iew": 2366,
      "ify": 2367,
      "Ġsquare": 2368,
      "pper": 2369,
      "Ġdomain": 2370,
      "Ġblock": 2371,
      "const": 2372,
      "Ġroot": 2373,
      "Ġconstra": 2374,
      "sp": 2375,
      "Ġclear": 2376,
      "aus": 2377,
      "Ġcoordin": 2378,
      "ave": 2379,
      "Ġact": 2380,
      "go": 2381,
      "note": 2382,
      "Ġ\\}": 2383,
      "uting": 2384,
      "Ġaround": 2385,
      "Ġextend": 2386,
      "Ġenc": 2387,
      "mathcal": 2388,
      "Theta": 2389,
      "Ġemp": 2390,
      "light": 2391,
      "Ġ\\partial": 2392,
      "Ġsay": 2393,
      "incip": 2394,
      "How": 2395,
      "ĠEq": 2396,
      "\\nonumber": 2397,
      "Ġsolve": 2398,
      "Ġ\\)": 2399,
      "Ġclosed": 2400,
      "\\sin": 2401,
      "ump": 2402,
      "Ġiter": 2403,
      "cep": 2404,
      "ets": 2405,
      "cording": 2406,
      "Ġstill": 2407,
      "Ġunderstanding": 2408,
      "ference": 2409,
      "ĠThese": 2410,
      "\\B": 2411,
      "Ġnecess": 2412,
      "ters": 2413,
      "Ġsignificant": 2414,
      "Ġbelow": 2415,
      "ually": 2416,
      "Ġnote": 2417,
      "rary": 2418,
      "ĠYou": 2419,
      "Ġanother": 2420,
      "long": 2421,
      "allen": 2422,
      "Ġcri": 2423,
      "Ġstring": 2424,
      "An": 2425,
      "Ġbehavi": 2426,
      "izing": 2427,
      "licit": 2428,
      "divid": 2429,
      "font": 2430,
      "Ġsetting": 2431,
      "lied": 2432,
      "tate": 2433,
      "ima": 2434,
      "Ġyi": 2435,
      "fication": 2436,
      "ĠĠĠĠĠĠĠ": 2437,
      "\\em": 2438,
      "group": 2439,
      "Here": 2440,
      "Ġperform": 2441,
      "Ġindex": 2442,
      "Ġwrit": 2443,
      "Ġperformance": 2444,
      "ling": 2445,
      "lobal": 2446,
      "Ġquanti": 2447,
      "gan": 2448,
      "date": 2449,
      "texts": 2450,
      "ife": 2451,
      "Ġconf": 2452,
      "Ġincluding": 2453,
      "Ġalways": 2454,
      "\\R": 2455,
      "attern": 2456,
      "sets": 2457,
      "Ġpolynomial": 2458,
      "vex": 2459,
      "Ġsepar": 2460,
      "import": 2461,
      "tead": 2462,
      "^N": 2463,
      "comes": 2464,
      "fect": 2465,
      "ber": 2466,
      "viron": 2467,
      "Ġestimate": 2468,
      "^t": 2469,
      "Ġcommon": 2470,
      "%eval": 2471,
      "titu": 2472,
      "Ġweak": 2473,
      "fied": 2474,
      "Ġaf": 2475,
      "\\cos": 2476,
      "DE": 2477,
      "Ġ\\Big": 2478,
      "Ġloss": 2479,
      "II": 2480,
      "Ġ\\bar": 2481,
      "Ġwant": 2482,
      "Ġindivid": 2483,
      "asy": 2484,
      "Ġ\\item": 2485,
      "Ġaccu": 2486,
      "'\\": 2487,
      "Ġ\\wide": 2488,
      "Ġoff": 2489,
      "Ġhyper": 2490,
      "udi": 2491,
      "Ġgrow": 2492,
      "ety": 2493,
      "Ġ\\tau": 2494,
      "IN": 2495,
      "isplay": 2496,
      "mine": 2497,
      "\\!\\!": 2498,
      "Ġphys": 2499,
      "Ġturn": 2500,
      "cases": 2501,
      "Ġrepresentation": 2502,
      "sible": 2503,
      "lue": 2504,
      "Ġdete": 2505,
      "Ġdifferen": 2506,
      "Ġexpla": 2507,
      "rel": 2508,
      "Ġfour": 2509,
      "Ġcall": 2510,
      "Ġmight": 2511,
      "Ġmark": 2512,
      "\\hline": 2513,
      "Ġhence": 2514,
      "book": 2515,
      "Ġtor": 2516,
      "Ġapply": 2517,
      "Ġcategor": 2518,
      "Al": 2519,
      "lev": 2520,
      "inde": 2521,
      "\\limits": 2522,
      "Ġmathe": 2523,
      "list": 2524,
      "Note": 2525,
      "De": 2526,
      "definition": 2527,
      "Ġfree": 2528,
      "Ġseries": 2529,
      "Ġgenerated": 2530,
      "Fig": 2531,
      "Ġgroups": 2532,
      "ĠĠĠĠĠĠĠĠĠĠ": 2533,
      "ames": 2534,
      "ĠHence": 2535,
      "function": 2536,
      "Ġthink": 2537,
      "\\cent": 2538,
      "spe": 2539,
      "Ġmultiple": 2540,
      "Ġsurface": 2541,
      "&&": 2542,
      "ĉĊ": 2543,
      "point": 2544,
      "SE": 2545,
      "Ġ\\mbox": 2546,
      "Ġtogether": 2547,
      "hip": 2548,
      "order": 2549,
      "ĠFigure": 2550,
      "Ġlit": 2551,
      "Ġflow": 2552,
      "So": 2553,
      "dag": 2554,
      "Ġoriginal": 2555,
      "chie": 2556,
      "Ġframe": 2557,
      "Ġcontribu": 2558,
      "Ġbasis": 2559,
      "Ġconsist": 2560,
      "ged": 2561,
      "color": 2562,
      "most": 2563,
      "Ġparti": 2564,
      "Ġperiod": 2565,
      "search": 2566,
      "Ġfocus": 2567,
      "Ġ\\S": 2568,
      "Ġgeome": 2569,
      "ullet": 2570,
      "ccur": 2571,
      "Ġrow": 2572,
      "aligned": 2573,
      "ials": 2574,
      "omin": 2575,
      "orted": 2576,
      "fill": 2577,
      "wn": 2578,
      "ĠĊĠĠ": 2579,
      "zero": 2580,
      "Ġcompact": 2581,
      "ĠPy": 2582,
      "Ġwords": 2583,
      "sigma": 2584,
      "kes": 2585,
      "Ġinf": 2586,
      "vial": 2587,
      "that": 2588,
      "Ġphase": 2589,
      "Ġprec": 2590,
      "Ġfrequ": 2591,
      "np": 2592,
      "Ġcomponents": 2593,
      "Ġ\\omega": 2594,
      "Ġtraining": 2595,
      "Ġlabel": 2596,
      "Ġear": 2597,
      "Ġangle": 2598,
      "Ġess": 2599,
      "gener": 2600,
      "ĠNote": 2601,
      "Ġaverage": 2602,
      "abs": 2603,
      "Ġ\\Delta": 2604,
      "ources": 2605,
      "Ġmaximum": 2606,
      "Ġabs": 2607,
      "isplaystyle": 2608,
      "Ġ?": 2609,
      "Ġsto": 2610,
      "Ġcolumn": 2611,
      "Ġtechn": 2612,
      "Ġtran": 2613,
      "omorphic": 2614,
      "Ġcontext": 2615,
      "range": 2616,
      "Ġedges": 2617,
      "Ġrestric": 2618,
      "Ġcertain": 2619,
      "Ġgood": 2620,
      "Ġclu": 2621,
      "Ġconnected": 2622,
      "Ġachie": 2623,
      "\\neq": 2624,
      "Ġview": 2625,
      "ĠThey": 2626,
      "num": 2627,
      "anced": 2628,
      "ime": 2629,
      "\\pro": 2630,
      "Ġlight": 2631,
      "Ġcount": 2632,
      "ople": 2633,
      "Ġ\\psi": 2634,
      "Ġspaces": 2635,
      "Ġuniform": 2636,
      "Ġspecial": 2637,
      "Ġ\\cdots": 2638,
      "\\hspace": 2639,
      "Theorem": 2640,
      "Ġet": 2641,
      "alth": 2642,
      "Ġintegral": 2643,
      "ody": 2644,
      "delta": 2645,
      "Ġcurve": 2646,
      "cont": 2647,
      "ses": 2648,
      "Ġfamily": 2649,
      "mit": 2650,
      "Ġ\\overline": 2651,
      "Ġbest": 2652,
      "Ġsupport": 2653,
      "Ġprincip": 2654,
      "tan": 2655,
      "jection": 2656,
      "Ġrelation": 2657,
      "mes": 2658,
      "Ġduring": 2659,
      "dt": 2660,
      "Ġreason": 2661,
      "ouble": 2662,
      "ond": 2663,
      "ently": 2664,
      "Ġchallen": 2665,
      "Ġpop": 2666,
      "':": 2667,
      "Ġsche": 2668,
      "Ġsever": 2669,
      "remark": 2670,
      "Ġinvari": 2671,
      "Ġplay": 2672,
      "Ġarea": 2673,
      "Ġoften": 2674,
      "Ġ\\subset": 2675,
      "Ġrequire": 2676,
      "Ġ^": 2677,
      "Ġ\\dots": 2678,
      "ĠBe": 2679,
      "ational": 2680,
      "Ġsense": 2681,
      "\\setminus": 2682,
      "ans": 2683,
      "Ġvalid": 2684,
      "Ġdifference": 2685,
      "ĠĊĉ": 2686,
      "Ġdel": 2687,
      "more": 2688,
      "\\underline": 2689,
      "Ġexplo": 2690,
      "Ġextra": 2691,
      "Ġworld": 2692,
      "ified": 2693,
      "Ġenviron": 2694,
      "Ġ#": 2695,
      "normal": 2696,
      "ĠĠĠĠĠĠĠĠĠĠĠĠĠĠĠĠĠĠĠĠĠĠĠĠĠĠĠĠ": 2697,
      "Ġlemma": 2698,
      "Ġ\\Omega": 2699,
      "Ġthough": 2700,
      "Ġhigher": 2701,
      "ries": 2702,
      "Ġstatement": 2703,
      "Ġpattern": 2704,
      "values": 2705,
      "Ġcoun": 2706,
      "Ġinfinite": 2707,
      "\\cup": 2708,
      "Ġlines": 2709,
      "Ġcorrect": 2710,
      "aris": 2711,
      "blem": 2712,
      "Ġcomponent": 2713,
      "tangle": 2714,
      "ĠAd": 2715,
      "^{*": 2716,
      "iff": 2717,
      "Ġcomputation": 2718,
      "Ġflu": 2719,
      "Ġtechniques": 2720,
      "Ġoccur": 2721,
      "Ġseveral": 2722,
      "\\sim": 2723,
      "vice": 2724,
      "Ġâī": 2725,
      "Ġtask": 2726,
      "\\over": 2727,
      "hood": 2728,
      "ĉ\\end": 2729,
      "Ġmade": 2730,
      "Ġwhe": 2731,
      "Ġcou": 2732,
      "Ġstart": 2733,
      "isms": 2734,
      "proposition": 2735,
      "Ġlearn": 2736,
      "ila": 2737,
      "ledge": 2738,
      "Ġcannot": 2739,
      "way": 2740,
      "clusion": 2741,
      "Ġmis": 2742,
      "foot": 2743,
      "Ġ\\log": 2744,
      "sa": 2745,
      "ĠType": 2746,
      "resul": 2747,
      "Ġinves": 2748,
      "mapsto": 2749,
      "allel": 2750,
      "\\centering": 2751,
      "Ġsubset": 2752,
      "Ġoptimal": 2753,
      "čĊĉ": 2754,
      "Ġexpon": 2755,
      "Ġsteps": 2756,
      "olumn": 2757,
      "Ch": 2758,
      "Ġrole": 2759,
      "čĊĠĠĠĠ": 2760,
      "Ġpur": 2761,
      "ĠSt": 2762,
      "sidered": 2763,
      "Ġexperi": 2764,
      "SS": 2765,
      "trices": 2766,
      "Ġwhose": 2767,
      "Ġcross": 2768,
      "case": 2769,
      "Ġdid": 2770,
      "\\g": 2771,
      "temp": 2772,
      "ĠâĦ": 2773,
      "tio": 2774,
      "Ġsimpl": 2775,
      "ficients": 2776,
      "slant": 2777,
      "Ġneigh": 2778,
      "rem": 2779,
      "Ġexamples": 2780,
      "Ġarbit": 2781,
      "Ġsumma": 2782,
      "Ġmatch": 2783,
      "floor": 2784,
      "########": 2785,
      "âĤĢ": 2786,
      "ccess": 2787,
      "RE": 2788,
      "ams": 2789,
      "Ġbetter": 2790,
      "trans": 2791,
      "Ġ\\eta": 2792,
      "ination": 2793,
      "Ġstudi": 2794,
      "Ġrelated": 2795,
      "Ġcell": 2796,
      "\\dot": 2797,
      "enti": 2798,
      "sume": 2799,
      "cer": 2800,
      "Ġdig": 2801,
      "lim": 2802,
      "Ġinstance": 2803,
      "Ġ\\ge": 2804,
      "Ġrepla": 2805,
      "gorithms": 2806,
      "Ġsufficient": 2807,
      "Ġ\\nabla": 2808,
      "Ġ\\varphi": 2809,
      "ilities": 2810,
      "Ġtable": 2811,
      "Ġtarget": 2812,
      "loy": 2813,
      "alf": 2814,
      "Ġeasi": 2815,
      "Ġdecomp": 2816,
      "TATE": 2817,
      "Ġmen": 2818,
      "Ġpeople": 2819,
      "ĠĠĠĠĠĠĠĠĠ": 2820,
      "Ġnegative": 2821,
      "Ġupper": 2822,
      "tage": 2823,
      "Thus": 2824,
      "Ġenough": 2825,
      "sert": 2826,
      "ĠThere": 2827,
      "edu": 2828,
      "ĠMa": 2829,
      "Ġfull": 2830,
      "Ġconsidered": 2831,
      "Ġuser": 2832,
      "string": 2833,
      "ĠĊĠĠĠĠ": 2834,
      "^j": 2835,
      "footnote": 2836,
      "Ġchoice": 2837,
      "info": 2838,
      "Ġresearch": 2839,
      "Ġsug": 2840,
      "Ġtool": 2841,
      "Ġfeatures": 2842,
      "inom": 2843,
      "mber": 2844,
      "Ġmanif": 2845,
      "Ġcompute": 2846,
      "You": 2847,
      "tically": 2848,
      "Ġtakes": 2849,
      "ernel": 2850,
      "ON": 2851,
      "Ġtherefore": 2852,
      "Ġprovided": 2853,
      "\\bigg": 2854,
      "Ġargument": 2855,
      "sen": 2856,
      "crete": 2857,
      "Ġreco": 2858,
      "\\qquad": 2859,
      "ymp": 2860,
      "Ġcalculate": 2861,
      "Therefore": 2862,
      "thesis": 2863,
      "ior": 2864,
      "Ġimm": 2865,
      "Ġsent": 2866,
      "nu": 2867,
      "rop": 2868,
      "\\xspace": 2869,
      "rg": 2870,
      "ately": 2871,
      "Ġhuman": 2872,
      "mathbb": 2873,
      "Ġsubs": 2874,
      "Ġallows": 2875,
      "Ġ\\citep": 2876,
      "xy": 2877,
      "state": 2878,
      "Ġmoment": 2879,
      "Ġ\\xi": 2880,
      "Ġname": 2881,
      "Ġembed": 2882,
      "ott": 2883,
      "bi": 2884,
      "Ġrepresent": 2885,
      "gen": 2886,
      "Ġinclude": 2887,
      "Ġoperators": 2888,
      "hom": 2889,
      "Ġdescribed": 2890,
      "cting": 2891,
      "Ġnorm": 2892,
      "ĠNone": 2893,
      "ĠĠWe": 2894,
      "ĠExample": 2895,
      "^s": 2896,
      "Ġquad": 2897,
      "Ġ\\langle": 2898,
      "Ġmaps": 2899,
      "Ġdx": 2900,
      "ware": 2901,
      "Ġimprove": 2902,
      "Ġcircle": 2903,
      "ustom": 2904,
      "sol": 2905,
      "olume": 2906,
      "Ġfields": 2907,
      "nde": 2908,
      "redu": 2909,
      "\\Pi": 2910,
      "Ġagain": 2911,
      "\\C": 2912,
      "Ġday": 2913,
      "Ġho": 2914,
      "sup": 2915,
      "Ġposition": 2916,
      "scale": 2917,
      "Ġessential": 2918,
      "Ġexpected": 2919,
      "Ġdia": 2920,
      "\\Vert": 2921,
      "Ġstudents": 2922,
      "\\def": 2923,
      "âĢ¢": 2924,
      "gies": 2925,
      "AR": 2926,
      "ird": 2927,
      "Ġensure": 2928,
      "Ġchoose": 2929,
      "approx": 2930,
      "ire": 2931,
      "tag": 2932,
      "kappa": 2933,
      "Ġclassi": 2934,
      "ĠBut": 2935,
      "ĠI'": 2936,
      "Ġfinal": 2937,
      "Ġassumption": 2938,
      "ntrodu": 2939,
      "varepsilon": 2940,
      "ired": 2941,
      "Ġstra": 2942,
      "Ġcoefficients": 2943,
      "ital": 2944,
      "Ġmatrices": 2945,
      "uture": 2946,
      "\\subseteq": 2947,
      "based": 2948,
      "ends": 2949,
      "non": 2950,
      "Ġtree": 2951,
      "Ġdetermine": 2952,
      "command": 2953,
      "Ġidentity": 2954,
      "Ġax": 2955,
      "Ġ\\qquad": 2956,
      "joint": 2957,
      "wor": 2958,
      "Ġtriangle": 2959,
      "Ġcritical": 2960,
      "\\|_": 2961,
      "AB": 2962,
      "Ġfund": 2963,
      "\\ar": 2964,
      "Ġ%": 2965,
      "Ġmechan": 2966,
      "/(": 2967,
      "ĠMoreover": 2968,
      "tablish": 2969,
      "aly": 2970,
      "Ġwhether": 2971,
      "\\Theta": 2972,
      "Ġprime": 2973,
      "urb": 2974,
      "ĠNow": 2975,
      "cs": 2976,
      "nown": 2977,
      "ĠWhen": 2978,
      "Ġadditional": 2979,
      "Ġti": 2980,
      "ills": 2981,
      "ĠĠĠĠĊ": 2982,
      "Ġfew": 2983,
      "Ġrequired": 2984,
      "Ġimpact": 2985,
      "Ġexactly": 2986,
      "ants": 2987,
      "lication": 2988,
      "af": 2989,
      "Ġphot": 2990,
      "Ġextension": 2991,
      "Ġclassical": 2992,
      "vaila": 2993,
      "iled": 2994,
      "\\f": 2995,
      "\\textwidth": 2996,
      "ours": 2997,
      "wards": 2998,
      "amil": 2999,
      "Ġbehavior": 3000,
      "Ġalgorithms": 3001,
      "âĢĻs": 3002,
      "iti": 3003,
      "Ġcolor": 3004,
      "ĠÎ±": 3005,
      "Ġfactors": 3006,
      "Ġvia": 3007,
      "pped": 3008,
      "\\'": 3009,
      "pol": 3010,
      "\\\"": 3011,
      "RO": 3012,
      "Ġorgan": 3013,
      "tivity": 3014,
      "sitions": 3015,
      "Ġconstruction": 3016,
      "ale": 3017,
      "Ġsugges": 3018,
      "^{*}": 3019,
      "Ġenvironment": 3020,
      "Ġimport": 3021,
      "Ġcap": 3022,
      "monstra": 3023,
      "ler": 3024,
      "ĠâĨĴ": 3025,
      "Ġ\\epsilon": 3026,
      "Ġ\\ar": 3027,
      "title": 3028,
      "Ġbase": 3029,
      "^{+": 3030,
      "ators": 3031,
      "Ġwave": 3032,
      "Ġ\\nonumber": 3033,
      "\\displaystyle": 3034,
      "Ġproposed": 3035,
      "Ġlarger": 3036,
      "algebra": 3037,
      "Ġhim": 3038,
      "čĊĠĠ": 3039,
      "Ġyears": 3040,
      "Ġmed": 3041,
      "âĢĿ": 3042,
      "resh": 3043,
      "any": 3044,
      "tered": 3045,
      "Ġconvex": 3046,
      "sequence": 3047,
      "Ġconvergence": 3048,
      "Ġlife": 3049,
      "ready": 3050,
      "Ġ\\Gamma": 3051,
      "Ġevent": 3052,
      "~$\\": 3053,
      "ĠOn": 3054,
      "dist": 3055,
      "racy": 3056,
      "ground": 3057,
      "Ġinside": 3058,
      "example": 3059,
      "deg": 3060,
      "Ġprovides": 3061,
      "List": 3062,
      "ĠVars": 3063,
      "Ġestablish": 3064,
      "xd": 3065,
      "Ġinterval": 3066,
      "enari": 3067,
      "Ġclaim": 3068,
      "Ġassum": 3069,
      "Ġconfig": 3070,
      "lor": 3071,
      "tle": 3072,
      "use": 3073,
      "Ġir": 3074,
      "ĠPython": 3075,
      "Ġglobal": 3076,
      "aring": 3077,
      "Ġdirection": 3078,
      "Ġadj": 3079,
      "ER": 3080,
      "Ġnecessary": 3081,
      "Ġmaking": 3082,
      "Ġgraphs": 3083,
      "void": 3084,
      "Ġinstead": 3085,
      "Ġconstruct": 3086,
      "ited": 3087,
      "ised": 3088,
      "Ġreach": 3089,
      "Ġsmaller": 3090,
      "rum": 3091,
      "tative": 3092,
      "\\max": 3093,
      "day": 3094,
      "Ġapproximation": 3095,
      "hy": 3096,
      "pdf": 3097,
      "index": 3098,
      "Ġsymmetric": 3099,
      "ĉ\\begin": 3100,
      "Ġbecomes": 3101,
      "Ġnotation": 3102,
      "dient": 3103,
      "input": 3104,
      "Ġarray": 3105,
      "ĠComp": 3106,
      "Ġopp": 3107,
      "Ġnear": 3108,
      "Ġtw": 3109,
      "lin": 3110,
      "off": 3111,
      "ĠNo": 3112,
      "tein": 3113,
      "Ġissu": 3114,
      "tely": 3115,
      "ift": 3116,
      "Ġfit": 3117,
      "ĠĠand": 3118,
      "ched": 3119,
      "ah": 3120,
      "Ġdri": 3121,
      "Ġtypes": 3122,
      "known": 3123,
      "Ġ\\neq": 3124,
      "ug": 3125,
      "Ġtransform": 3126,
      "plot": 3127,
      "ĠNe": 3128,
      "Ġexplicit": 3129,
      "Ġapplications": 3130,
      "Ġsides": 3131,
      "mentation": 3132,
      "dered": 3133,
      "LE": 3134,
      "on't": 3135,
      "ery": 3136,
      "Ġintegers": 3137,
      "dagger": 3138,
      "ik": 3139,
      "Ġapplied": 3140,
      "Ġ\\cup": 3141,
      "ultic": 3142,
      "Ġown": 3143,
      "âĪ": 3144,
      "ntroduction": 3145,
      "fact": 3146,
      "pres": 3147,
      "nel": 3148,
      "Ġenti": 3149,
      "ublic": 3150,
      "ush": 3151,
      "gine": 3152,
      "Ġ\\nu": 3153,
      "cul": 3154,
      "shape": 3155,
      "ĠWhat": 3156,
      "cies": 3157,
      "čĊĠ": 3158,
      "izes": 3159,
      "Ġhold": 3160,
      "Ġalready": 3161,
      "Ġvectors": 3162,
      "Ġbra": 3163,
      "matic": 3164,
      "Ġversion": 3165,
      "netic": 3166,
      "Ġdraw": 3167,
      "imilar": 3168,
      "^r": 3169,
      "Ġauto": 3170,
      "Ġfig": 3171,
      "Ġsource": 3172,
      "'re": 3173,
      "var": 3174,
      "Ġdemonstra": 3175,
      "Ġfar": 3176,
      "ĠRes": 3177,
      "ĠMe": 3178,
      "Ġsci": 3179,
      "AT": 3180,
      "ressed": 3181,
      "Ġel": 3182,
      "Ġdenotes": 3183,
      "then": 3184,
      "Ġjo": 3185,
      "Ġhist": 3186,
      "Ġrank": 3187,
      "ules": 3188,
      "mic": 3189,
      "Ġmix": 3190,
      "Ġbuil": 3191,
      "clo": 3192,
      "aries": 3193,
      "Ġ<<": 3194,
      "Ġconc": 3195,
      "itude": 3196,
      "author": 3197,
      "Ġ\\varepsilon": 3198,
      "Ġstatis": 3199,
      "Ġdevelopment": 3200,
      "\\mid": 3201,
      "Ġscale": 3202,
      "append": 3203,
      "Ġprac": 3204,
      "uration": 3205,
      "Comp": 3206,
      "aussian": 3207,
      "dim": 3208,
      "\\footnote": 3209,
      "str": 3210,
      "Ġseen": 3211,
      "Ġeffect": 3212,
      "Ġminimum": 3213,
      "++": 3214,
      "Ġ\\subseteq": 3215,
      "Ġ\\hline": 3216,
      "Ġremo": 3217,
      "alk": 3218,
      "rict": 3219,
      "No": 3220,
      "forms": 3221,
      "Lemma": 3222,
      "length": 3223,
      "Ġdiag": 3224,
      "Ġarbitrary": 3225,
      "omic": 3226,
      "Ġcult": 3227,
      "ĠâĢĵ": 3228,
      "On": 3229,
      "Ġclasses": 3230,
      "Ġsearch": 3231,
      "Ġyields": 3232,
      "Ġdistin": 3233,
      "Ġwritten": 3234,
      "Ġobserv": 3235,
      "ages": 3236,
      "Ġcustom": 3237,
      "Ġsatisfy": 3238,
      "Ġdirectly": 3239,
      "ĠEn": 3240,
      "Ġeasy": 3241,
      "anish": 3242,
      "vailable": 3243,
      "Ġgenerate": 3244,
      "Ġhypo": 3245,
      "Ġobserved": 3246,
      "nts": 3247,
      "What": 3248,
      "AL": 3249,
      "Ġlaw": 3250,
      "Ġcli": 3251,
      "Ġincreasing": 3252,
      "Ġsuccess": 3253,
      "Ġtaking": 3254,
      "Proof": 3255,
      "Ġ\\r": 3256,
      "amilton": 3257,
      "lected": 3258,
      "gn": 3259,
      "ympto": 3260,
      "Ġelse": 3261,
      "Ġsaid": 3262,
      "Ġ\\circ": 3263,
      "CT": 3264,
      "Ġobjects": 3265,
      "ĉ&": 3266,
      "step": 3267,
      "Ġtensor": 3268,
      "AM": 3269,
      "Ġbreak": 3270,
      "Ġvel": 3271,
      "Ġapplication": 3272,
      "ticle": 3273,
      "\\,\\,": 3274,
      "ple": 3275,
      "Ġdivis": 3276,
      "Ġbox": 3277,
      "Ġit's": 3278,
      "Ġbegin": 3279,
      "prod": 3280,
      "Ġratio": 3281,
      "Ġexistence": 3282,
      "Ġconcept": 3283,
      "Ġmove": 3284,
      "fil": 3285,
      "otal": 3286,
      "Ġdecision": 3287,
      "Ġprogram": 3288,
      "hile": 3289,
      "tack": 3290,
      "urthermore": 3291,
      "Ġdetails": 3292,
      "Ġodd": 3293,
      "site": 3294,
      "Ġhar": 3295,
      "std": 3296,
      "Ġdecre": 3297,
      "ocity": 3298,
      "eps": 3299,
      "Ġsatisfying": 3300,
      "part": 3301,
      "Ġusu": 3302,
      "Ġidentify": 3303,
      "head": 3304,
      "Ġeffective": 3305,
      "Ġnoise": 3306,
      "Ġrepresents": 3307,
      "NN": 3308,
      "stack": 3309,
      "train": 3310,
      "Ġtemperature": 3311,
      "rier": 3312,
      "\\put": 3313,
      "Ġnumerical": 3314,
      "xe": 3315,
      "^*)": 3316,
      "Ġaccording": 3317,
      "norm": 3318,
      "Ġsitu": 3319,
      "amental": 3320,
      "Ġnam": 3321,
      "Ġconclude": 3322,
      "actions": 3323,
      "izer": 3324,
      "mptyset": 3325,
      "Ġpas": 3326,
      "Ġplot": 3327,
      "longrightarrow": 3328,
      "peci": 3329,
      "\\prod": 3330,
      "bits": 3331,
      "One": 3332,
      "Ġ\\ell": 3333,
      "ĠĠIn": 3334,
      "\\E": 3335,
      "Ġworks": 3336,
      "ream": 3337,
      "Ġwidth": 3338,
      "vent": 3339,
      "Ġhapp": 3340,
      "ier": 3341,
      "Ġrefer": 3342,
      "Ġdifferential": 3343,
      "Ġtoo": 3344,
      "Ġacross": 3345,
      "Ġdataset": 3346,
      "can": 3347,
      "astic": 3348,
      "Ġproved": 3349,
      "vee": 3350,
      "}}": 3351,
      "struct": 3352,
      "Ġamount": 3353,
      "ĠPo": 3354,
      "Ġamong": 3355,
      "load": 3356,
      "Ġhealth": 3357,
      "olic": 3358,
      "key": 3359,
      "run": 3360,
      "zed": 3361,
      "Ġshape": 3362,
      "arge": 3363,
      "Ġinterpre": 3364,
      "Ġnodes": 3365,
      "Ġcru": 3366,
      "Mod": 3367,
      "ights": 3368,
      "Ġchanges": 3369,
      "Ġtry": 3370,
      "Ġfuture": 3371,
      "\\eqref": 3372,
      "Ġspeed": 3373,
      "Ġknowledge": 3374,
      "ratic": 3375,
      "len": 3376,
      "Ġcontradic": 3377,
      "ĠCor": 3378,
      "Ġmem": 3379,
      "Ġada": 3380,
      "local": 3381,
      "Ġsymbol": 3382,
      "tik": 3383,
      "Ġinvariant": 3384,
      "arison": 3385,
      "Ġmathematical": 3386,
      "ible": 3387,
      "Ġefficient": 3388,
      "ropy": 3389,
      "Ġsw": 3390,
      "ĠOne": 3391,
      "ulticolumn": 3392,
      "~(\\": 3393,
      "cles": 3394,
      "Ġpairs": 3395,
      "Ġword": 3396,
      "Idx": 3397,
      "Ġwater": 3398,
      "Given": 3399,
      "zing": 3400,
      "Ġspin": 3401,
      "Ġloop": 3402,
      "comple": 3403,
      "Ġgame": 3404,
      "Ġlink": 3405,
      "nal": 3406,
      "\\colon": 3407,
      "RS": 3408,
      "\\equiv": 3409,
      "Ġsimu": 3410,
      "llu": 3411,
      "Ġplace": 3412,
      "Ġpric": 3413,
      "tiv": 3414,
      "stract": 3415,
      "Ġ\\ensuremath": 3416,
      "\\line": 3417,
      "Eq": 3418,
      "Ġmess": 3419,
      "ĠQu": 3420,
      "Ġscenari": 3421,
      "Ġshort": 3422,
      "pose": 3423,
      "Ġpartial": 3424,
      "Ġclose": 3425,
      "using": 3426,
      "loc": 3427,
      "Ġmach": 3428,
      "Ġasympto": 3429,
      "Ġradius": 3430,
      "ĠWith": 3431,
      "rule": 3432,
      "Ġcommunic": 3433,
      "Ġhalf": 3434,
      "rees": 3435,
      "Ġcharacteristic": 3436,
      "Ġsm": 3437,
      "ĠNf": 3438,
      "epsilon": 3439,
      "like": 3440,
      "\\sup": 3441,
      "Ġneeds": 3442,
      "levant": 3443,
      "Ġinst": 3444,
      "Ġrecent": 3445,
      "idence": 3446,
      "Ġprior": 3447,
      "oh": 3448,
      "ored": 3449,
      "\\bib": 3450,
      "Data": 3451,
      "Ġlik": 3452,
      "Ġplane": 3453,
      "Ġfri": 3454,
      "lap": 3455,
      "ories": 3456,
      "ystem": 3457,
      "Ġuses": 3458,
      "Ġalmost": 3459,
      "From": 3460,
      "Ġsimply": 3461,
      "bmatrix": 3462,
      "Ġbal": 3463,
      "Ġ\\mathfrak": 3464,
      "Ġfrequency": 3465,
      "Ġmorph": 3466,
      "Ġrelative": 3467,
      "Ġite": 3468,
      "Ġcover": 3469,
      "Ġfraction": 3470,
      "tionary": 3471,
      "Ġcoordinates": 3472,
      "^{(\\": 3473,
      "cket": 3474,
      "Ġproject": 3475,
      "Ġball": 3476,
      "ceed": 3477,
      "ange": 3478,
      "ogene": 3479,
      "grams": 3480,
      "ĠTe": 3481,
      "Ġevolution": 3482,
      "Ġresulting": 3483,
      "lan": 3484,
      "Ġhaving": 3485,
      "versity": 3486,
      "produ": 3487,
      "amiltonian": 3488,
      "AC": 3489,
      "Ġhead": 3490,
      "Ġavailable": 3491,
      "Ġcategory": 3492,
      "this": 3493,
      "ĠUni": 3494,
      "mission": 3495,
      "cument": 3496,
      "pos": 3497,
      "Ġscheme": 3498,
      "\\ket": 3499,
      "Ġdetermined": 3500,
      "First": 3501,
      "Ġ\\def": 3502,
      "llustra": 3503,
      "Ġprocesses": 3504,
      "$.": 3505,
      "Ġdone": 3506,
      "However": 3507,
      "tikz": 3508,
      "|=": 3509,
      "Ġdynamics": 3510,
      "Ġeasily": 3511,
      "Ġexpan": 3512,
      "Par": 3513,
      "Ġchosen": 3514,
      "Ġsocial": 3515,
      "Ġsplit": 3516,
      "Ġface": 3517,
      "Ġ\\equiv": 3518,
      "Ġframework": 3519,
      "volution": 3520,
      "Ġdistinct": 3521,
      "Ġintroduce": 3522,
      "Ġideal": 3523,
      "Ġgal": 3524,
      "Ġos": 3525,
      "Ġable": 3526,
      "Ġresi": 3527,
      "come": 3528,
      "sqrt": 3529,
      "Ġdeci": 3530,
      "Ġminimal": 3531,
      "Ġbounds": 3532,
      "Ġmention": 3533,
      "Ġinflu": 3534,
      "://": 3535,
      "Ġsomething": 3536,
      "fined": 3537,
      "Ġrather": 3538,
      "oti": 3539,
      "Ġproced": 3540,
      "\\min": 3541,
      "Ġparts": 3542,
      "Ġestimates": 3543,
      "Ġbook": 3544,
      "\\wedge": 3545,
      "ctic": 3546,
      "Ġconven": 3547,
      "output": 3548,
      "Ġneeded": 3549,
      "ken": 3550,
      "Ġcl": 3551,
      "Ġcut": 3552,
      "Ġsyn": 3553,
      "Ġrepresen": 3554,
      "pth": 3555,
      "ĉĊĉ": 3556,
      "ĠSet": 3557,
      "He": 3558,
      "Ġidea": 3559,
      "Ġrece": 3560,
      "\\exp": 3561,
      "ously": 3562,
      "ĠAnd": 3563,
      "Ġring": 3564,
      "Ġhor": 3565,
      "atives": 3566,
      "Ġbund": 3567,
      "Suppose": 3568,
      "Res": 3569,
      "ids": 3570,
      "Ġassign": 3571,
      "Ar": 3572,
      "Ġaltern": 3573,
      "Ġcomplexity": 3574,
      "Ġaccess": 3575,
      "Ġpresented": 3576,
      "^*(": 3577,
      "atter": 3578,
      "module": 3579,
      "my": 3580,
      "tention": 3581,
      "oms": 3582,
      "Ġdenoted": 3583,
      "ĠSh": 3584,
      "AS": 3585,
      "Ġrequires": 3586,
      "Ġintroduced": 3587,
      "Ġrule": 3588,
      "hift": 3589,
      "Ġstructures": 3590,
      "Ġpreser": 3591,
      "Ġkernel": 3592,
      "ht": 3593,
      "Ġbasic": 3594,
      "tively": 3595,
      "Ġtheore": 3596,
      "Ġcapa": 3597,
      "ĠUsing": 3598,
      "St": 3599,
      "rror": 3600,
      "ĠSuppose": 3601,
      "\\small": 3602,
      "Ġfeature": 3603,
      "ek": 3604,
      "black": 3605,
      "agraph": 3606,
      "Ġbelong": 3607,
      "ĠStep": 3608,
      "\\oplus": 3609,
      "There": 3610,
      "Ġcommu": 3611,
      "rig": 3612,
      "Ġfla": 3613,
      "Ġmakes": 3614,
      "Ġfundamental": 3615,
      "Ġappear": 3616,
      "ca": 3617,
      "Ġbro": 3618,
      "Ġindividual": 3619,
      "Ġcorresponds": 3620,
      "Ġcurves": 3621,
      "Ġensu": 3622,
      "though": 3623,
      "Ġisomorphism": 3624,
      "level": 3625,
      "bs": 3626,
      "ura": 3627,
      "^c": 3628,
      "Ġred": 3629,
      "Ġinvesti": 3630,
      "Ġground": 3631,
      "itch": 3632,
      "Ġ]": 3633,
      "ename": 3634,
      "When": 3635,
      "Ġderivative": 3636,
      "fit": 3637,
      "Ġblack": 3638,
      "Ġleading": 3639,
      "Ġpie": 3640,
      "cepts": 3641,
      "Ġphysical": 3642,
      "Ġmater": 3643,
      "Ġskills": 3644,
      "Ġcontaining": 3645,
      "pand": 3646,
      "CD": 3647,
      "che": 3648,
      "net": 3649,
      "assert": 3650,
      "ully": 3651,
      "auto": 3652,
      "Ġmode": 3653,
      "Ġlet's": 3654,
      "Ġvelocity": 3655,
      "PS": 3656,
      "Ġgrowth": 3657,
      "arp": 3658,
      "det": 3659,
      "arily": 3660,
      "With": 3661,
      "Ġdiagram": 3662,
      "image": 3663,
      "ndeed": 3664,
      "Ġlattice": 3665,
      "Ġthird": 3666,
      "xf": 3667,
      "Ġche": 3668,
      "Ġ\\Phi": 3669,
      "\\,,": 3670,
      "Ġsignal": 3671,
      "Ġtransition": 3672,
      "cap": 3673,
      "Ġ\\widetilde": 3674,
      "ĠConsider": 3675,
      "\\ln": 3676,
      "Ġillustra": 3677,
      "Ġremains": 3678,
      "OR": 3679,
      "Ġkeep": 3680,
      "riter": 3681,
      "Ġ\\mid": 3682,
      "inte": 3683,
      "omen": 3684,
      "Ġimages": 3685,
      "Ġmeaning": 3686,
      "usion": 3687,
      "Ġintersection": 3688,
      "Ġdecomposition": 3689,
      "'_{": 3690,
      "cible": 3691,
      "ris": 3692,
      "Ġpolic": 3693,
      "Ġcour": 3694,
      "ĠFrom": 3695,
      "Consider": 3696,
      "Ġeffects": 3697,
      "Ġris": 3698,
      "dy": 3699,
      "Ġaccount": 3700,
      "\\vspace": 3701,
      "Ġoperations": 3702,
      "Ġaccuracy": 3703,
      "AN": 3704,
      "PE": 3705,
      "free": 3706,
      "Ġinverse": 3707,
      "vices": 3708,
      "Ġreview": 3709,
      "idx": 3710,
      "olor": 3711,
      "brace": 3712,
      ":}": 3713,
      "meq": 3714,
      "Ġforms": 3715,
      "STATE": 3716,
      "Ġseg": 3717,
      "base": 3718,
      "code": 3719,
      "ĠProof": 3720,
      "Ġreduced": 3721,
      "Ġmaximal": 3722,
      "count": 3723,
      "Ġtru": 3724,
      "Ġrecall": 3725,
      "Ġuseful": 3726,
      "\\;\\;": 3727,
      "TAC": 3728,
      "cd": 3729,
      "Ġdepends": 3730,
      "\\star": 3731,
      "Ġtaken": 3732,
      "Ġpoly": 3733,
      "cid": 3734,
      "ĠĠĊĊ": 3735,
      "write": 3736,
      "\\|^": 3737,
      "char": 3738,
      "Ġhowever": 3739,
      "\\L": 3740,
      "iota": 3741,
      "ĠGaussian": 3742,
      "At": 3743,
      "Ġchapter": 3744,
      "mptions": 3745,
      "Ġ\\(\\": 3746,
      "Ġben": 3747,
      "conne": 3748,
      "efine": 3749,
      "sco": 3750,
      "rength": 3751,
      "Ġdouble": 3752,
      "Ġbecome": 3753,
      "Ġpass": 3754,
      "Ġdesired": 3755,
      "ranch": 3756,
      "Ġembedding": 3757,
      "mathbf": 3758,
      "Ġ\\sin": 3759,
      "Ġincrease": 3760,
      "ĠWork": 3761,
      "gre": 3762,
      "Ġstrict": 3763,
      "Ġanalog": 3764,
      "Ġappropri": 3765,
      "ĠAt": 3766,
      "True": 3767,
      "Ġgen": 3768,
      "čĊĠĠĠĠĠĠĠĠ": 3769,
      "Ġsymmetry": 3770,
      "Ġvolume": 3771,
      "thog": 3772,
      "yers": 3773,
      "Ġconstraints": 3774,
      "Ġdiffic": 3775,
      "simeq": 3776,
      "Hence": 3777,
      "Ġmaintain": 3778,
      "Ġdeep": 3779,
      "Qu": 3780,
      "subsection": 3781,
      "Using": 3782,
      "Ġcompared": 3783,
      "Finally": 3784,
      "IC": 3785,
      "iter": 3786,
      "ĠCar": 3787,
      "mid": 3788,
      "python": 3789,
      "âĤģ": 3790,
      "Ġspectrum": 3791,
      "iness": 3792,
      "Ġflo": 3793,
      "Ġtransformation": 3794,
      "Ġlayer": 3795,
      "page": 3796,
      "Ġ\\cos": 3797,
      "Ġmeasures": 3798,
      "Ġemploy": 3799,
      "lease": 3800,
      "Ġelectron": 3801,
      "Ġways": 3802,
      "Ġdescribe": 3803,
      ":s": 3804,
      "alg": 3805,
      "Ġpartition": 3806,
      "cla": 3807,
      "Ġhard": 3808,
      "turb": 3809,
      "Ġneighbor": 3810,
      "Ġcenter": 3811,
      "ynomials": 3812,
      "Ġdon't": 3813,
      "App": 3814,
      "zz": 3815,
      "imilarly": 3816,
      "mean": 3817,
      "Ġinduced": 3818,
      "node": 3819,
      "idel": 3820,
      "Ġhome": 3821,
      "Ġsingular": 3822,
      "Sub": 3823,
      "Ġcos": 3824,
      "Ġcrucial": 3825,
      "ditional": 3826,
      "Ġobserve": 3827,
      "ception": 3828,
      "Ġsoft": 3829,
      "Ġstrategies": 3830,
      "hand": 3831,
      "Ġitself": 3832,
      "izations": 3833,
      "indow": 3834,
      "^*\\": 3835,
      "\\new": 3836,
      "points": 3837,
      "thers": 3838,
      "Ġstrategy": 3839,
      "Ġsubgroup": 3840,
      "lean": 3841,
      "Ġ\\sim": 3842,
      "matics": 3843,
      "Ġmanifold": 3844,
      "Ġheight": 3845,
      "Ġfast": 3846,
      "Ġentire": 3847,
      "Ġchild": 3848,
      "Ġconnection": 3849,
      "Ġrelevant": 3850,
      "Ġprobab": 3851,
      "Set": 3852,
      "versal": 3853,
      "\\!\\": 3854,
      "textsc": 3855,
      "ĠTable": 3856,
      "ctors": 3857,
      "Ġapplying": 3858,
      "namefont": 3859,
      "Ġpref": 3860,
      "Ġgreater": 3861,
      "Ġoptimization": 3862,
      "Ġimportance": 3863,
      "picture": 3864,
      "^*}": 3865,
      "\\bullet": 3866,
      "Ġleads": 3867,
      "down": 3868,
      "Ġminu": 3869,
      "Ġshift": 3870,
      "ls": 3871,
      "Ġ\\Lambda": 3872,
      "Ġevents": 3873,
      "Ġunits": 3874,
      "na": 3875,
      "jecture": 3876,
      "Ġresponse": 3877,
      "med": 3878,
      "Ġ\\setminus": 3879,
      "Ġstable": 3880,
      "Ġhours": 3881,
      "Ġsentence": 3882,
      "Me": 3883,
      "corollary": 3884,
      "ĠUse": 3885,
      "Ġrecur": 3886,
      "Ġdiscrete": 3887,
      "ĠHamiltonian": 3888,
      "Ġ&&": 3889,
      "real": 3890,
      "Ġremaining": 3891,
      "Ġpost": 3892,
      "ighted": 3893,
      "loss": 3894,
      "Ġ!": 3895,
      "ogeneous": 3896,
      "Ġpack": 3897,
      "Ġ~": 3898,
      "ottom": 3899,
      "Ġcorrespond": 3900,
      "onical": 3901,
      "ĠĠĠĠĊĠĠĠĠ": 3902,
      "aking": 3903,
      "umpy": 3904,
      "Ġmatter": 3905,
      "Ġmanage": 3906,
      "Ġexponential": 3907,
      "Ġ\\u": 3908,
      "ĠThat": 3909,
      "gest": 3910,
      "ĠĠĠĠĠĠĠĠĠĠĠĠĠĠĠĠĠĠ": 3911,
      "'.": 3912,
      "negative": 3913,
      "EN": 3914,
      "ĠKe": 3915,
      "Ġagainst": 3916,
      "ĠMod": 3917,
      "Ġimmedi": 3918,
      "draw": 3919,
      "result": 3920,
      "ĠChapter": 3921,
      "Ġalgebraic": 3922,
      "ĠCal": 3923,
      "Ad": 3924,
      "triangle": 3925,
      "ank": 3926,
      "Ġput": 3927,
      "Ġutil": 3928,
      "init": 3929,
      "Ġrepe": 3930,
      "Step": 3931,
      "ellip": 3932,
      "Ġband": 3933,
      "itz": 3934,
      "\\dfrac": 3935,
      "sur": 3936,
      "pling": 3937,
      "&$": 3938,
      "izon": 3939,
      "ili": 3940,
      "ĠAI": 3941,
      "parameter": 3942,
      "lications": 3943,
      "Un": 3944,
      "ĠLi": 3945,
      "ket": 3946,
      "variant": 3947,
      "Ġchain": 3948,
      "Ġ\\C": 3949,
      "ĠUn": 3950,
      "Ġonce": 3951,
      "ĠGra": 3952,
      "olynomial": 3953,
      "pher": 3954,
      "$,": 3955,
      "xc": 3956,
      "ĠLie": 3957,
      "ĠĠis": 3958,
      "ficiency": 3959,
      "ele": 3960,
      "Ġnetworks": 3961,
      "Ġaxis": 3962,
      "\\textrm": 3963,
      "ification": 3964,
      "Ġprojection": 3965,
      "Ġdual": 3966,
      "ĠFinally": 3967,
      "Ġmotion": 3968,
      "DF": 3969,
      "Ġspectral": 3970,
      "Ġinteresting": 3971,
      "Ġvanish": 3972,
      "ĠNc": 3973,
      "mann": 3974,
      "iny": 3975,
      "field": 3976,
      "hips": 3977,
      "Ġwhy": 3978,
      "Ġcycle": 3979,
      "Ġcentral": 3980,
      "Ġexpansion": 3981,
      "comm": 3982,
      "Ġsamples": 3983,
      "Ġlater": 3984,
      "Ġnu": 3985,
      "Ġuntil": 3986,
      "Ġtrivial": 3987,
      "nds": 3988,
      "Ġshall": 3989,
      "Ġquadratic": 3990,
      "âĤĤ": 3991,
      "Ġbinary": 3992,
      "Ġreduce": 3993,
      "Ġapproaches": 3994,
      "inear": 3995,
      "Ġquestions": 3996,
      "iting": 3997,
      "ĉ*": 3998,
      "Ġ\\operatorname": 3999,
      "Ġdistributions": 4000,
      "mpling": 4001,
      "Our": 4002,
      "Ġsuppose": 4003,
      "IS": 4004,
      "Ġones": 4005,
      "Ġlen": 4006,
      "Ġdomin": 4007,
      "ĠĠLet": 4008,
      "fically": 4009,
      "ctice": 4010,
      "Ġadap": 4011,
      "Ġdiagonal": 4012,
      "uter": 4013,
      "Ġmachine": 4014,
      "Ġweights": 4015,
      "Ġ\\pm": 4016,
      "ĠOur": 4017,
      "Ġord": 4018,
      "Ġmemory": 4019,
      "place": 4020,
      "bert": 4021,
      "\\ast": 4022,
      "oo": 4023,
      "ĠâĢľ": 4024,
      "Ġaddress": 4025,
      "ĠĠin": 4026,
      "reducible": 4027,
      "Ġfeel": 4028,
      "ĠFirst": 4029,
      "@{": 4030,
      "cf": 4031,
      "Ġderived": 4032,
      "Ġconsists": 4033,
      "Ġgradient": 4034,
      "Ġpolynomials": 4035,
      "cell": 4036,
      "pect": 4037,
      "Ġcub": 4038,
      "Ġampl": 4039,
      "Ġcontent": 4040,
      "Error": 4041,
      "idden": 4042,
      "sssim": 4043,
      "ĠProblem": 4044,
      "mal": 4045,
      "iffere": 4046,
      "Ġsure": 4047,
      "Ġgoing": 4048,
      "ĠSch": 4049,
      "Ġequivalence": 4050,
      "Ġconj": 4051,
      "Ġpatterns": 4052,
      "Ġtowards": 4053,
      "Ġstarting": 4054,
      "ares": 4055,
      "Ġrec": 4056,
      "Ġparticle": 4057,
      "____": 4058,
      "Ġ\\chi": 4059,
      "\\emph": 4060,
      "Ġ\\R": 4061,
      "Ġgoal": 4062,
      "Ġstraight": 4063,
      "ats": 4064,
      "ruction": 4065,
      "lier": 4066,
      "ĠOb": 4067,
      "Ġoperation": 4068,
      ":,": 4069,
      "Ġfore": 4070,
      "Ġerrors": 4071,
      "Op": 4072,
      "ĠEqu": 4073,
      "Ġdedu": 4074,
      "Ġhypothesis": 4075,
      "imits": 4076,
      "Ġprocedure": 4077,
      "Ġarguments": 4078,
      "Ġenga": 4079,
      "gate": 4080,
      "itable": 4081,
      "Ġcha": 4082,
      "Ġmeasurement": 4083,
      "ecu": 4084,
      "reate": 4085,
      "sample": 4086,
      "Ġavoid": 4087,
      "Ġexperience": 4088,
      "Ġmagnetic": 4089,
      "Ġfigure": 4090,
      "ending": 4091,
      "Ġmodule": 4092,
      "Sh": 4093,
      "Ġbus": 4094,
      "Ġgalax": 4095,
      "faces": 4096,
      "jor": 4097,
      "Ġ\\boldsymbol": 4098,
      "eros": 4099,
      "Ġexplore": 4100,
      "Ġtools": 4101,
      "process": 4102,
      "Ġ\\forall": 4103,
      "bes": 4104,
      "semb": 4105,
      "ĠJa": 4106,
      "mary": 4107,
      "Ġori": 4108,
      "Ġothers": 4109,
      "ĠShe": 4110,
      "city": 4111,
      "Ġpermu": 4112,
      "AP": 4113,
      "endix": 4114,
      "Ġrational": 4115,
      "vered": 4116,
      "ided": 4117,
      "ibri": 4118,
      "Ġperfect": 4119,
      "Ġappropriate": 4120,
      "Po": 4121,
      "cod": 4122,
      "Ġcoefficient": 4123,
      "bust": 4124,
      "mult": 4125,
      "Ġcomputed": 4126,
      "Ġanalyze": 4127,
      "Ġweb": 4128,
      "Ġchallenges": 4129,
      "Ġparticles": 4130,
      "Ġcontained": 4131,
      "Ġequality": 4132,
      "rank": 4133,
      "Ġinner": 4134,
      "Ġassumptions": 4135,
      "ctory": 4136,
      "Ġ\\cref": 4137,
      "Ġstudied": 4138,
      "multi": 4139,
      "ilibri": 4140,
      "Ġconsidering": 4141,
      "itor": 4142,
      "\\hbox": 4143,
      "\\mathop": 4144,
      "Ġcollection": 4145,
      "axis": 4146,
      "forward": 4147,
      "clic": 4148,
      "ctivity": 4149,
      "Ġforce": 4150,
      "eli": 4151,
      "Ġstrength": 4152,
      "Ġrelationship": 4153,
      "\\D": 4154,
      "Ġreturns": 4155,
      "ables": 4156,
      "ightarrow": 4157,
      "thogonal": 4158,
      "lower": 4159,
      "ID": 4160,
      "rant": 4161,
      "otop": 4162,
      "mming": 4163,
      "uals": 4164,
      "Ġdiscussed": 4165,
      "nn": 4166,
      "Ġbackground": 4167,
      "erc": 4168,
      "ĠSub": 4169,
      "Ġwhole": 4170,
      "Ġorbit": 4171,
      "Ġ\\bm": 4172,
      "Ġconcepts": 4173,
      "None": 4174,
      "Ġparallel": 4175,
      "ante": 4176,
      "irt": 4177,
      "Ġsequences": 4178,
      "cular": 4179,
      "MS": 4180,
      "ĠâĨĳ": 4181,
      "ĠĠa": 4182,
      "Ġnature": 4183,
      "dual": 4184,
      "isely": 4185,
      "&-": 4186,
      "inf": 4187,
      "\\G": 4188,
      "chastic": 4189,
      "Ġbody": 4190,
      "\\,.": 4191,
      "Ġrules": 4192,
      "Ġbelie": 4193,
      "Example": 4194,
      "Ġ\\citet": 4195,
      "impl": 4196,
      "Ġlocally": 4197,
      "^a": 4198,
      "Ġey": 4199,
      "icro": 4200,
      "Ġblue": 4201,
      "encies": 4202,
      "Ġconclusion": 4203,
      "Ġ\\widehat": 4204,
      "ww": 4205,
      "Ġinteraction": 4206,
      "\\bold": 4207,
      "ĠĠA": 4208,
      "Ob": 4209,
      "trivial": 4210,
      "Ġcommunication": 4211,
      "random": 4212,
      "Ġaway": 4213,
      "Ġcoin": 4214,
      "ĠĠThis": 4215,
      "sumption": 4216,
      "seud": 4217,
      "Ġaccurate": 4218,
      "Ġ\\Sigma": 4219,
      "ĠMathe": 4220,
      "ĠGiven": 4221,
      "ns": 4222,
      "Ġdays": 4223,
      "Ġscalar": 4224,
      "ising": 4225,
      "ises": 4226,
      "ots": 4227,
      "Ġdisco": 4228,
      "port": 4229,
      "Ġdiscuss": 4230,
      "Ġorigin": 4231,
      "htt": 4232,
      "Ġfunctional": 4233,
      "Ġeigenvalues": 4234,
      "Ġoverall": 4235,
      "ĠĠfor": 4236,
      "ĠEu": 4237,
      "ming": 4238,
      "ĠÃ": 4239,
      "Ġcalculated": 4240,
      "Ġsubject": 4241,
      "Ġvisual": 4242,
      "parse": 4243,
      "sequently": 4244,
      "Ġperson": 4245,
      "dict": 4246,
      "IM": 4247,
      "ceil": 4248,
      "slash": 4249,
      "onic": 4250,
      "Ġabsolu": 4251,
      "orts": 4252,
      "Ġtrack": 4253,
      "such": 4254,
      "Ġaut": 4255,
      "ĠEach": 4256,
      "ĠâĪĪ": 4257,
      "IT": 4258,
      "cause": 4259,
      "Ġconstants": 4260,
      "cong": 4261,
      "Ġotherwise": 4262,
      "Ġobservations": 4263,
      "Ġloc": 4264,
      "plt": 4265,
      "Ġproducts": 4266,
      "osed": 4267,
      "Ġtell": 4268,
      "Ġsolving": 4269,
      "\\H": 4270,
      "change": 4271,
      "dir": 4272,
      "ĠPh": 4273,
      "Ġexperiments": 4274,
      "Ġsufficiently": 4275,
      "\\sf": 4276,
      "ious": 4277,
      "Ġanti": 4278,
      "Ġprice": 4279,
      "Ġ\\t": 4280,
      "Ġextended": 4281,
      "Ġtrain": 4282,
      "Ġask": 4283,
      "ingu": 4284,
      "ograph": 4285,
      "continu": 4286,
      "Ġyear": 4287,
      "Ġcome": 4288,
      "Ġ\\over": 4289,
      "Ġhol": 4290,
      "\\subsubsection": 4291,
      "ĠCorollary": 4292,
      "ĠAr": 4293,
      "ĠĠFor": 4294,
      "PT": 4295,
      "vature": 4296,
      "^q": 4297,
      "Ġbig": 4298,
      "Ġ^{": 4299,
      "Ġga": 4300,
      "small": 4301,
      "ances": 4302,
      "Ġachieve": 4303,
      "ometric": 4304,
      "ret": 4305,
      "Ġonline": 4306,
      "ĠÏ": 4307,
      "lip": 4308,
      "Ele": 4309,
      "vals": 4310,
      "Ġdimensions": 4311,
      "otimes": 4312,
      "ived": 4313,
      "ourier": 4314,
      "Ġresources": 4315,
      "Ġfeed": 4316,
      "Ġ\\!": 4317,
      "ones": 4318,
      "Ġ+=": 4319,
      "\\textit": 4320,
      "Ġguar": 4321,
      "oper": 4322,
      "Ġdescription": 4323,
      "Ġnever": 4324,
      "Next": 4325,
      "olving": 4326,
      "reshold": 4327,
      "ĠĠof": 4328,
      "And": 4329,
      "mented": 4330,
      "aves": 4331,
      "ĠFalse": 4332,
      "ĠIs": 4333,
      "Ġcand": 4334,
      "\\|_{\\": 4335,
      "sy": 4336,
      "perp": 4337,
      "Ġdetailed": 4338,
      "Ġobservation": 4339,
      "ute": 4340,
      "Ġcommunity": 4341,
      "Lo": 4342,
      "Ġtasks": 4343,
      "These": 4344,
      "Ġdepending": 4345,
      "car": 4346,
      "ouse": 4347,
      "Ġfinding": 4348,
      "Ġcourse": 4349,
      "prob": 4350,
      "Ġbundle": 4351,
      "zation": 4352,
      "\\w": 4353,
      "Ġmapping": 4354,
      "rable": 4355,
      "belian": 4356,
      "mail": 4357,
      "CH": 4358,
      "MR": 4359,
      "Ġincor": 4360,
      "ned": 4361,
      "Ġrepresented": 4362,
      "Ġuniformly": 4363,
      "Ġcalcul": 4364,
      "Ġlib": 4365,
      "Ġ\\colon": 4366,
      "Ġmus": 4367,
      "chool": 4368,
      "Ġonto": 4369,
      "Ġperturb": 4370,
      "ions": 4371,
      "Ġpan": 4372,
      "Ġmid": 4373,
      "OF": 4374,
      "Ġaim": 4375,
      "ĠFurthermore": 4376,
      "dle": 4377,
      "Ġwar": 4378,
      "bly": 4379,
      "Ġload": 4380,
      ">\\": 4381,
      "ĠIdenti": 4382,
      "ĠData": 4383,
      "Ġtreat": 4384,
      "Ġsources": 4385,
      "ev": 4386,
      "coun": 4387,
      "Ġentangle": 4388,
      "ĠĠĠĠĠĠĠĠĠĠĠ": 4389,
      "Ġquasi": 4390,
      "Cor": 4391,
      "sts": 4392,
      "\\forall": 4393,
      "args": 4394,
      "Ġbranch": 4395,
      "osing": 4396,
      "fying": 4397,
      "Ġminutes": 4398,
      "ĠNew": 4399,
      "Ġcomputing": 4400,
      "cil": 4401,
      "Ġ\\p": 4402,
      "Ġcomparison": 4403,
      "</": 4404,
      "Ġgeneralized": 4405,
      "Ġneg": 4406,
      "tane": 4407,
      "Ġlevels": 4408,
      "Ġenh": 4409,
      "Ġ@": 4410,
      "lice": 4411,
      "Ġmentioned": 4412,
      "ght": 4413,
      "Ġtorch": 4414,
      "Ġirreducible": 4415,
      "Ġcoordinate": 4416,
      "allest": 4417,
      "licity": 4418,
      "But": 4419,
      "Ġimplement": 4420,
      "iding": 4421,
      "Ġpopulation": 4422,
      "ĠLa": 4423,
      "LL": 4424,
      "Ġvariety": 4425,
      "omm": 4426,
      "Ġellip": 4427,
      "otient": 4428,
      "Ġdiff": 4429,
      "Ġinvolves": 4430,
      "Ġtang": 4431,
      "Ġroots": 4432,
      "Ġnor": 4433,
      "error": 4434,
      "opt": 4435,
      "Ġ\\vec": 4436,
      "Ġregions": 4437,
      "Ġsupported": 4438,
      "Ġcontradiction": 4439,
      "\\mapsto": 4440,
      "ĠWhile": 4441,
      "Ġcaus": 4442,
      "ĠĠĠĠĠĠĠĠĠĠĠĠĠĠ": 4443,
      "uler": 4444,
      "osite": 4445,
      "\\<^": 4446,
      "Ġintegration": 4447,
      "BC": 4448,
      "Ġâī¤": 4449,
      "Ġcompare": 4450,
      "Introduction": 4451,
      "Ġsituation": 4452,
      "Ġupon": 4453,
      "batch": 4454,
      "Ġcombination": 4455,
      "flow": 4456,
      "Ġgeometry": 4457,
      "Ġdic": 4458,
      "Ġdefines": 4459,
      "Ġgeometric": 4460,
      "ml": 4461,
      "Ġgas": 4462,
      "mation": 4463,
      "Ġmarket": 4464,
      "ternal": 4465,
      "Ġformal": 4466,
      "\\T": 4467,
      "\\bigr": 4468,
      "Ġempty": 4469,
      "~~~~": 4470,
      "ML": 4471,
      "bas": 4472,
      "EE": 4473,
      "Ġconsistent": 4474,
      "Â²": 4475,
      "Ġstd": 4476,
      "exists": 4477,
      "optim": 4478,
      "Ġflat": 4479,
      "Ġ;": 4480,
      "Ġspatial": 4481,
      "Ġ\\kappa": 4482,
      "Ġprote": 4483,
      "intro": 4484,
      "\\a": 4485,
      "Ġimplementation": 4486,
      "Ġexperiment": 4487,
      "Ġold": 4488,
      "čĊĉĉ": 4489,
      "Ġmeasurements": 4490,
      "Ġactually": 4491,
      "Ġevaluate": 4492,
      "ĠRo": 4493,
      "Ġkind": 4494,
      "ĠMark": 4495,
      "Ġarch": 4496,
      "show": 4497,
      "Ġworking": 4498,
      "Ġprecisely": 4499,
      "Ġtechnology": 4500,
      "Ġdecay": 4501,
      "Ġlatter": 4502,
      "âģ": 4503,
      "Ġusers": 4504,
      "Ġpolar": 4505,
      "Ġisomorphic": 4506,
      "Ġcanonical": 4507,
      "make": 4508,
      "ilibrium": 4509,
      "CC": 4510,
      "alysis": 4511,
      "roups": 4512,
      "ĠPar": 4513,
      "mbers": 4514,
      "Ġconfiguration": 4515,
      "Ġmessage": 4516,
      "ĠLo": 4517,
      "'=": 4518,
      "GL": 4519,
      "Ġforward": 4520,
      "Ġland": 4521,
      "reed": 4522,
      "Ġclust": 4523,
      "Ġbit": 4524,
      "Ġ\\bigg": 4525,
      "term": 4526,
      "Ġpure": 4527,
      "Ġthings": 4528,
      "ĠI'm": 4529,
      "Ġrotation": 4530,
      "Ġincreases": 4531,
      "Ġchannel": 4532,
      "Ġecon": 4533,
      "phant": 4534,
      "open": 4535,
      "Ġmagn": 4536,
      "dash": 4537,
      "oting": 4538,
      "Ġ\\lim": 4539,
      "Ġhorizon": 4540,
      "Ġprof": 4541,
      "Ġslight": 4542,
      "itions": 4543,
      "ĠDis": 4544,
      "ĠDefinition": 4545,
      "ymmetric": 4546,
      "\\F": 4547,
      "Ġmar": 4548,
      "Ġmole": 4549,
      "Ġ\\prod": 4550,
      "ession": 4551,
      "Ġcorrelation": 4552,
      "parti": 4553,
      "Proposition": 4554,
      "Ġbar": 4555,
      "ĠTrue": 4556,
      "Ġsatisfied": 4557,
      "}\\": 4558,
      "Ġvo": 4559,
      "alities": 4560,
      "Ġclassification": 4561,
      "Ġremark": 4562,
      "ker": 4563,
      "rd": 4564,
      "\\A": 4565,
      "Ġmind": 4566,
      "param": 4567,
      "Ġtopological": 4568,
      "Ġgover": 4569,
      "cast": 4570,
      "\\bi": 4571,
      "Ġreference": 4572,
      "float": 4573,
      "Ġconsequence": 4574,
      "ense": 4575,
      "Ġreduction": 4576,
      "Ġpaths": 4577,
      "ĠMon": 4578,
      "Ġcombin": 4579,
      "lates": 4580,
      "break": 4581,
      "Ġedu": 4582,
      "Ġguarante": 4583,
      "labor": 4584,
      "erm": 4585,
      "/p": 4586,
      "\\dim": 4587,
      "diag": 4588,
      "Â¹": 4589,
      "roll": 4590,
      "Ġnum": 4591,
      "Ġconverges": 4592,
      "Ġĉ": 4593,
      "Ġcoupling": 4594,
      "Ġhandle": 4595,
      "asure": 4596,
      "Ġexam": 4597,
      "start": 4598,
      "ĠĠĠĠĠĠĠĠĠĠĠĠĠĠĠĠĠĠĠĠĠĠ": 4599,
      "Ġexplor": 4600,
      "Ġattention": 4601,
      "valid": 4602,
      "Ġindeed": 4603,
      "criptstyle": 4604,
      "ditionally": 4605,
      "Ġasymptotic": 4606,
      "rec": 4607,
      "ield": 4608,
      "olve": 4609,
      "ilbert": 4610,
      "member": 4611,
      "Let's": 4612,
      "'$.": 4613,
      "isted": 4614,
      "block": 4615,
      ">>": 4616,
      "ĠImp": 4617,
      "Ġdeal": 4618,
      "thors": 4619,
      "Ġmorphism": 4620,
      "/n": 4621,
      "aps": 4622,
      "Ġcalculation": 4623,
      "MC": 4624,
      "display": 4625,
      "Ġbuild": 4626,
      "Moreover": 4627,
      "Ġsus": 4628,
      "Ġmer": 4629,
      "ening": 4630,
      "Ġshare": 4631,
      "vergence": 4632,
      "Ġcomma": 4633,
      "Ġsimulation": 4634,
      "Ġinduction": 4635,
      "Ġindividuals": 4636,
      "Ġgrid": 4637,
      "^*_": 4638,
      "otag": 4639,
      "\\iota": 4640,
      "Ġmomentum": 4641,
      "cons": 4642,
      "trace": 4643,
      "Ġthought": 4644,
      "Ġstability": 4645,
      "variance": 4646,
      "Ġpen": 4647,
      "iring": 4648,
      "ĠĠThen": 4649,
      "nian": 4650,
      "Ġpublic": 4651,
      "uri": 4652,
      "Ġcultural": 4653,
      "Is": 4654,
      "lt": 4655,
      "Ġgreat": 4656,
      "layer": 4657,
      "En": 4658,
      ":S": 4659,
      "Ġfilter": 4660,
      "uple": 4661,
      "alue": 4662,
      "Ġhistory": 4663,
      "Ġ\\exp": 4664,
      "Ġcard": 4665,
      "Ġdiscussion": 4666,
      "imal": 4667,
      "curity": 4668,
      "Ġlargest": 4669,
      "Ġcurvature": 4670,
      "world": 4671,
      "\\X": 4672,
      "Ġstory": 4673,
      "Ġissues": 4674,
      "while": 4675,
      "Ġauthor": 4676,
      "defined": 4677,
      "Ġrates": 4678,
      "Ġsound": 4679,
      "ÂłĠ": 4680,
      "Ġsubspace": 4681,
      "Equ": 4682,
      "Ġprinciple": 4683,
      "LS": 4684,
      "Ġsemi": 4685,
      "Ġsmallest": 4686,
      "\\cong": 4687,
      "ĠAnaly": 4688,
      "supp": 4689,
      "Ġprofile": 4690,
      "Ġbuilding": 4691,
      "super": 4692,
      "Ġacti": 4693,
      "config": 4694,
      "bl": 4695,
      "ĠIndeed": 4696,
      "^{[": 4697,
      "ĠWorkbook": 4698,
      "Ġcluster": 4699,
      "Ġcircu": 4700,
      "Ġpractice": 4701,
      "AD": 4702,
      "\\bigl": 4703,
      "blue": 4704,
      "Ġcriter": 4705,
      "Ġconstraint": 4706,
      "Ġprom": 4707,
      "Ġsuitable": 4708,
      "Ġ\\zeta": 4709,
      "ake": 4710,
      "nels": 4711,
      "Ġmonth": 4712,
      "Ġround": 4713,
      "Ġincludes": 4714,
      "LP": 4715,
      "number": 4716,
      "oura": 4717,
      "CO": 4718,
      "ĠAfter": 4719,
      "rief": 4720,
      "Ġdevi": 4721,
      "earch": 4722,
      "orld": 4723,
      "oud": 4724,
      "big": 4725,
      "Ġ\\hspace": 4726,
      "Trans": 4727,
      "structure": 4728,
      "simp": 4729,
      "Ġ\\oplus": 4730,
      "Ġdepth": 4731,
      "ĠĠwe": 4732,
      "MP": 4733,
      "Ġteam": 4734,
      "herent": 4735,
      "eness": 4736,
      "Ġexpec": 4737,
      "ðĿ": 4738,
      "Ġadding": 4739,
      "Ġexpressed": 4740,
      "ĠSci": 4741,
      "Ġtherm": 4742,
      "mask": 4743,
      "Ġcharacters": 4744,
      "cture": 4745,
      "but": 4746,
      "ĠAssume": 4747,
      "Ġ\\sup": 4748,
      "Ġcry": 4749,
      "cdot": 4750,
      "cccc": 4751,
      "tikzpicture": 4752,
      "Ġcomes": 4753,
      "Ġcondu": 4754,
      "Ġ\\bib": 4755,
      "Ġdegrees": 4756,
      "Ġneut": 4757,
      "Ġreplace": 4758,
      "Ġlittle": 4759,
      "_{\\": 4760,
      "Ġ\\|\\": 4761,
      "Ġdark": 4762,
      "Ġvariance": 4763,
      "ĠDo": 4764,
      "Ġsignificantly": 4765,
      "Ġorthogonal": 4766,
      "Li": 4767,
      "Ġ\\wedge": 4768,
      "Ġemo": 4769,
      "ohn": 4770,
      "Ġair": 4771,
      "ES": 4772,
      "\\binom": 4773,
      "pts": 4774,
      "Ġexpressions": 4775,
      "Ġreasoning": 4776,
      "Ġefficiency": 4777,
      "Ġunknown": 4778,
      "Ġbenef": 4779,
      "resp": 4780,
      "Ġgau": 4781,
      "tocol": 4782,
      "Section": 4783,
      "oxed": 4784,
      "format": 4785,
      "################": 4786,
      "Ġunderlying": 4787,
      "Ġexplain": 4788,
      "Ġcolle": 4789,
      "uck": 4790,
      "algorithm": 4791,
      "Ġ\\texttt": 4792,
      "Ġstars": 4793,
      "Ġsimulations": 4794,
      "Ġentropy": 4795,
      "eler": 4796,
      "Ġprog": 4797,
      "Ġage": 4798,
      "omorphisms": 4799,
      "'ll": 4800,
      "Ġconstructed": 4801,
      "Ġinver": 4802,
      "Ġspecified": 4803,
      "\\abs": 4804,
      "Ġquality": 4805,
      "ives": 4806,
      "conv": 4807,
      "ended": 4808,
      "ortun": 4809,
      "čĊčĊčĊ": 4810,
      "\\bibf": 4811,
      "ackslash": 4812,
      "Ġexecu": 4813,
      "ba": 4814,
      "Ġ\\multicolumn": 4815,
      "Ġpresence": 4816,
      "yond": 4817,
      "vor": 4818,
      "fort": 4819,
      "Ġupdate": 4820,
      "mag": 4821,
      "Ġsqu": 4822,
      "Ġ\\max": 4823,
      "Ġlikely": 4824,
      "Ġfood": 4825,
      "ales": 4826,
      "Ġyet": 4827,
      "otin": 4828,
      "Ġdeveloped": 4829,
      "Ġve": 4830,
      "DP": 4831,
      "mulation": 4832,
      "ĠDes": 4833,
      "monic": 4834,
      "Ġtopology": 4835,
      "Ġconcern": 4836,
      "fully": 4837,
      "Ph": 4838,
      "\\emptyset": 4839,
      "rs": 4840,
      "ĠTrans": 4841,
      "mage": 4842,
      "Ġcompre": 4843,
      "lex": 4844,
      "era": 4845,
      "Gra": 4846,
      "\\newcommand": 4847,
      "eline": 4848,
      "png": 4849,
      "Ġpay": 4850,
      "ney": 4851,
      "height": 4852,
      "begin": 4853,
      "âĬ": 4854,
      "ĠSome": 4855,
      "nation": 4856,
      "Ġstudies": 4857,
      "cel": 4858,
      "ĠĠĠĊ": 4859,
      "Ġrisk": 4860,
      "\\tfrac": 4861,
      "LO": 4862,
      "arith": 4863,
      "gramming": 4864,
      "Hom": 4865,
      "eff": 4866,
      "FT": 4867,
      "titute": 4868,
      "Ġnonlinear": 4869,
      "iii": 4870,
      "Ġplat": 4871,
      "first": 4872,
      "Ġalgebras": 4873,
      "cription": 4874,
      "Out": 4875,
      "poch": 4876,
      "Ġdefa": 4877,
      "Ġtermin": 4878,
      "inty": 4879,
      "\\linewidth": 4880,
      "Ġblocks": 4881,
      "img": 4882,
      "Ġrepresentations": 4883,
      "bilities": 4884,
      "Ġpolicy": 4885,
      "Ġdifferenti": 4886,
      "Ġperiodic": 4887,
      "Ġagree": 4888,
      "\\ve": 4889,
      "Ġshap": 4890,
      "Ġlogical": 4891,
      "ards": 4892,
      "Ġri": 4893,
      "Ġliterature": 4894,
      "Be": 4895,
      "ĠReal": 4896,
      "Type": 4897,
      "regular": 4898,
      "Ġsite": 4899,
      "Ġstrictly": 4900,
      "ĠAll": 4901,
      "phantom": 4902,
      "Ġmultiplication": 4903,
      "Ġunion": 4904,
      "two": 4905,
      "olimits": 4906,
      "xx": 4907,
      "formations": 4908,
      "False": 4909,
      "Ġareas": 4910,
      "diff": 4911,
      "Ġoutside": 4912,
      "tainty": 4913,
      "Ġdifficult": 4914,
      "Ġ__": 4915,
      "Ġrobust": 4916,
      "Ġneighborhood": 4917,
      "Ġmeet": 4918,
      "uni": 4919,
      "pair": 4920,
      "\\tt": 4921,
      "ĠInd": 4922,
      "ctu": 4923,
      "Ġflux": 4924,
      "Ġstr": 4925,
      "Ġtranslation": 4926,
      "ĠFourier": 4927,
      "Ġnotion": 4928,
      "Ġfive": 4929,
      "Ġstore": 4930,
      "^l": 4931,
      "Ġmeasured": 4932,
      "Ġstochastic": 4933,
      "gg": 4934,
      "Ġcare": 4935,
      "Ġspan": 4936,
      "ologies": 4937,
      "Ġ\\mapsto": 4938,
      "Ġpersonal": 4939,
      "Ġcolumns": 4940,
      "ĠAlso": 4941,
      "MM": 4942,
      "multline": 4943,
      "stance": 4944,
      "eturn": 4945,
      "Ġ\\vert": 4946,
      "ometry": 4947,
      "Ġconclu": 4948,
      "ley": 4949,
      "cks": 4950,
      "Ind": 4951,
      "Ġderive": 4952,
      "Ġarticle": 4953,
      "Ġencod": 4954,
      "Ġcounter": 4955,
      "ĠĊĉĉ": 4956,
      "xg": 4957,
      "tract": 4958,
      "Ġrelationships": 4959,
      "Ġoffer": 4960,
      "Ġadded": 4961,
      "Ġusual": 4962,
      "stable": 4963,
      "Ġassumed": 4964,
      "Ġdimensional": 4965,
      "Ġ::": 4966,
      "Ġfully": 4967,
      "Î³": 4968,
      "rac": 4969,
      "nabla": 4970,
      "frame": 4971,
      "close": 4972,
      "Ġstri": 4973,
      "Ġinteractions": 4974,
      "Ġtransfer": 4975,
      "Ġclearly": 4976,
      "EX": 4977,
      "ners": 4978,
      "Ġauthors": 4979,
      "ino": 4980,
      "gation": 4981,
      "sign": 4982,
      "Figure": 4983,
      "Ġpurpose": 4984,
      "Ġadvan": 4985,
      "Ġbusiness": 4986,
      "Ġdisjoint": 4987,
      "cknow": 4988,
      "Ġcm": 4989,
      "Ġlies": 4990,
      "land": 4991,
      "finity": 4992,
      "\\longrightarrow": 4993,
      "Ġcomputational": 4994,
      "\\eps": 4995,
      "Ġproduce": 4996,
      "ĠRef": 4997,
      "oney": 4998,
      "Ġappears": 4999,
      "mini": 5000,
      "SP": 5001,
      "/s": 5002,
      "Ġquite": 5003,
      "Ġeffectively": 5004,
      "berg": 5005,
      "cord": 5006,
      "alo": 5007,
      "Ġparticularly": 5008,
      "\\set": 5009,
      "ĠIns": 5010,
      "Ġcalculations": 5011,
      "inguish": 5012,
      "ĠRa": 5013,
      "Ġcompletely": 5014,
      "gather": 5015,
      "ults": 5016,
      "lots": 5017,
      "Ġresolution": 5018,
      "Ġquick": 5019,
      "^{+}": 5020,
      "Ġnumpy": 5021,
      "ĠĠĠĠĠĠĠĠĠĠĠĠĠĠĠĠĠ": 5022,
      "results": 5023,
      "Ġindust": 5024,
      "Ġpropor": 5025,
      "Ġproving": 5026,
      "Ġcreating": 5027,
      "Ġideas": 5028,
      "tring": 5029,
      "Ġfalse": 5030,
      "Ġperformed": 5031,
      "tors": 5032,
      "document": 5033,
      "yl": 5034,
      "Ġjob": 5035,
      "Ġpul": 5036,
      "^x": 5037,
      "Ġproviding": 5038,
      "EQ": 5039,
      "Ġtechnique": 5040,
      "ey": 5041,
      "Ġdistributed": 5042,
      "Ġdetection": 5043,
      "Ġneural": 5044,
      "Ġdt": 5045,
      "Ġadvanced": 5046,
      "alog": 5047,
      "ĠEng": 5048,
      "CP": 5049,
      "Id": 5050,
      "mt": 5051,
      "Ġdifferences": 5052,
      "Ġvary": 5053,
      "Ġsho": 5054,
      "culate": 5055,
      "Ġgauge": 5056,
      "isson": 5057,
      "Ġslow": 5058,
      "Ġiteration": 5059,
      "Ġuniqu": 5060,
      "bullet": 5061,
      "word": 5062,
      "Ġfas": 5063,
      "Ġstrongly": 5064,
      "Ġselect": 5065,
      "Ġtraje": 5066,
      "Ġnamely": 5067,
      "+\\": 5068,
      "ĠGe": 5069,
      "Ġiden": 5070,
      "ault": 5071,
      "raise": 5072,
      "Ġchem": 5073,
      "Ġestimation": 5074,
      "Ġactions": 5075,
      "UT": 5076,
      "CA": 5077,
      "ĠDefine": 5078,
      "sect": 5079,
      "ctives": 5080,
      "Sch": 5081,
      "Ġpressure": 5082,
      "\\#": 5083,
      "defn": 5084,
      "ĠSta": 5085,
      "Ġconser": 5086,
      "include": 5087,
      "Ġcontribution": 5088,
      "Ġwalk": 5089,
      "Ġapproximate": 5090,
      "Ġproduction": 5091,
      "inv": 5092,
      "ĠĠĠĠĠĠĠĠĠĠĠĠĠ": 5093,
      "Ġphen": 5094,
      "'$,": 5095,
      "Ġnucle": 5096,
      "âĬ¢": 5097,
      "ordered": 5098,
      "Ġdu": 5099,
      "Ġmicro": 5100,
      "ournal": 5101,
      "Ġleg": 5102,
      "apply": 5103,
      "Ġentries": 5104,
      "\\bibinfo": 5105,
      "Ġquotient": 5106,
      "PRO": 5107,
      "Ġdefault": 5108,
      "solving": 5109,
      "Ġphysics": 5110,
      "hind": 5111,
      "certainty": 5112,
      "Ġlocation": 5113,
      "ĠĠIf": 5114,
      "Ġpseud": 5115,
      "Ġsubsets": 5116,
      "Ġdependence": 5117,
      "uli": 5118,
      "idelines": 5119,
      "Ġinno": 5120,
      "ĠRie": 5121,
      "Ġexpand": 5122,
      "pc": 5123,
      "ĠOp": 5124,
      "sin": 5125,
      "bil": 5126,
      "Ġconta": 5127,
      "elves": 5128,
      "Ġcomposition": 5129,
      "Ġoptions": 5130,
      "org": 5131,
      "Ġscenario": 5132,
      "Ġsuffic": 5133,
      "check": 5134,
      "')$": 5135,
      "Ġtheoretical": 5136,
      "\\Bbb": 5137,
      "Ġvol": 5138,
      "ĠAb": 5139,
      "Ġupda": 5140,
      "Ġhelps": 5141,
      "Ġscaling": 5142,
      "arg": 5143,
      "weight": 5144,
      "ĠGu": 5145,
      "âĢĻt": 5146,
      "Ġfriends": 5147,
      "Ġiso": 5148,
      "^b": 5149,
      "ina": 5150,
      "Ġobvious": 5151,
      "Ġderivatives": 5152,
      "Ġcells": 5153,
      "vate": 5154,
      "Ġpick": 5155,
      "\\textup": 5156,
      "Ġequilibrium": 5157,
      "Ġpare": 5158,
      "Ġobjective": 5159,
      "Ġmajor": 5160,
      "Ġrunning": 5161,
      "Ġlabels": 5162,
      "Î´": 5163,
      "Ġarchite": 5164,
      "Ġformat": 5165,
      ":f": 5166,
      "Ġneighb": 5167,
      "invariant": 5168,
      "ntial": 5169,
      "Ġabsolute": 5170,
      "ade": 5171,
      "Ġcontrast": 5172,
      "Te": 5173,
      "Ġperspe": 5174,
      "PR": 5175,
      "Ġrestriction": 5176,
      "Ġtesting": 5177,
      "Ġability": 5178,
      "\\kern": 5179,
      "Ġprojective": 5180,
      "Ġalternative": 5181,
      "Ġsampling": 5182,
      "AA": 5183,
      "Ġfunctor": 5184,
      "Ġconcent": 5185,
      "Or": 5186,
      "Ġthinking": 5187,
      "Ġmonot": 5188,
      "Elements": 5189,
      "ĠHilbert": 5190,
      "Ġimmediately": 5191,
      "OO": 5192,
      "elihood": 5193,
      "Ġengine": 5194,
      "Ġpic": 5195,
      "Ġ\\cong": 5196,
      "SO": 5197,
      "target": 5198,
      "ĠUnderstand": 5199,
      "Ġseems": 5200,
      "ategory": 5201,
      "cum": 5202,
      "current": 5203,
      "older": 5204,
      "ches": 5205,
      "dro": 5206,
      "Name": 5207,
      "ccording": 5208,
      "Ġgenerally": 5209,
      "Ġequals": 5210,
      "pecially": 5211,
      "Ġcomputer": 5212,
      "Ġeducation": 5213,
      "Ġvirt": 5214,
      "Ġslightly": 5215,
      "ĠPer": 5216,
      "\\).": 5217,
      "Ġmodes": 5218,
      "lib": 5219,
      "Ġmembers": 5220,
      "Ġregression": 5221,
      "mits": 5222,
      "Ġsimul": 5223,
      "bolic": 5224,
      "Ġoccurs": 5225,
      "Ġrows": 5226,
      "Ġgenerating": 5227,
      "Ġsem": 5228,
      ":con": 5229,
      "vis": 5230,
      "ferences": 5231,
      "Ġreally": 5232,
      "Ġweek": 5233,
      "cat": 5234,
      "tational": 5235,
      "Ġeigenvalue": 5236,
      "Ġemph": 5237,
      "sitivity": 5238,
      "oral": 5239,
      "Ġprint": 5240,
      "\\re": 5241,
      "Ġconjecture": 5242,
      "vey": 5243,
      "Ġdivide": 5244,
      "ront": 5245,
      "Ġbatch": 5246,
      "Ġdeduce": 5247,
      "tus": 5248,
      "ori": 5249,
      "ĠBd": 5250,
      "Ġexisting": 5251,
      "ĠTra": 5252,
      "pan": 5253,
      "Ġtypically": 5254,
      "have": 5255,
      "Ġheat": 5256,
      "Ġphenomen": 5257,
      "MA": 5258,
      "Ġbehind": 5259,
      "Ġtrees": 5260,
      "Ġthreshold": 5261,
      "clide": 5262,
      "ĠOr": 5263,
      "has": 5264,
      "Ġsecurity": 5265,
      "ifying": 5266,
      "Ġanalytic": 5267,
      "Ġbeyond": 5268,
      "\\vartheta": 5269,
      "Ġarri": 5270,
      "Ġreson": 5271,
      "Ġindices": 5272,
      "Ġevidence": 5273,
      "Ġfinitely": 5274,
      "Ġul": 5275,
      "valued": 5276,
      "Ġestimated": 5277,
      "Ġthick": 5278,
      "Ġdefinitions": 5279,
      "atory": 5280,
      "pid": 5281,
      "predic": 5282,
      "ĠÂ": 5283,
      "Net": 5284,
      "Ġexplicitly": 5285,
      "Ġhomogeneous": 5286,
      "Ġ!=": 5287,
      "Ġinvolving": 5288,
      "Ġlonger": 5289,
      "ood": 5290,
      "groups": 5291,
      "Ġlayers": 5292,
      "Ġinfluence": 5293,
      "Ġinvolved": 5294,
      "Dis": 5295,
      "Ġ\\Psi": 5296,
      "ĠFe": 5297,
      "Recall": 5298,
      "Ġpast": 5299,
      "Ġpeak": 5300,
      "|\\": 5301,
      "Ġproposition": 5302,
      "Ġsoci": 5303,
      "Î±": 5304,
      "Ġprotocol": 5305,
      "oted": 5306,
      "ĠâĦĿ": 5307,
      "clidean": 5308,
      "ĠĊĊĊ": 5309,
      "Ġexcept": 5310,
      "aging": 5311,
      "ĠÃĹ": 5312,
      "Of": 5313,
      "Ġscore": 5314,
      "Ġemer": 5315,
      "Ġsolid": 5316,
      "Ġpractices": 5317,
      "Ġbroad": 5318,
      "Ġnull": 5319,
      "\\sc": 5320,
      "Ġtangent": 5321,
      "Ġdisplay": 5322,
      "Ġprediction": 5323,
      "Ġattack": 5324,
      "cen": 5325,
      "manif": 5326,
      "Ġopportun": 5327,
      "lig": 5328,
      "Ġsco": 5329,
      "ĊĊĊĊĊ": 5330,
      "Ġfeedback": 5331,
      "acter": 5332,
      "iles": 5333,
      "Ve": 5334,
      "Ġproje": 5335,
      "Ġallowing": 5336,
      "pite": 5337,
      "ĠIdentify": 5338,
      ":b": 5339,
      "Ġdisk": 5340,
      "arities": 5341,
      "Ġ\\new": 5342,
      "Ġconveni": 5343,
      "typ": 5344,
      "otopy": 5345,
      "\\approx": 5346,
      "\\hbar": 5347,
      "ka": 5348,
      "fs": 5349,
      "Ġevaluation": 5350,
      "Ġitems": 5351,
      "rested": 5352,
      "Ġincorpor": 5353,
      "subfigure": 5354,
      "elling": 5355,
      "Ġcore": 5356,
      "general": 5357,
      "unit": 5358,
      "ĠCho": 5359,
      "Ġattribu": 5360,
      "acc": 5361,
      "Ġaffine": 5362,
      "dec": 5363,
      "osp": 5364,
      "eries": 5365,
      "Ġexperimental": 5366,
      "proper": 5367,
      "Mat": 5368,
      "OS": 5369,
      "\\Z": 5370,
      "Assume": 5371,
      "Ġteach": 5372,
      "Ġusually": 5373,
      "Ġprogramming": 5374,
      "Ġselected": 5375,
      "matically": 5376,
      "\\leqslant": 5377,
      "\\mc": 5378,
      "Ġwindow": 5379,
      "IR": 5380,
      "Ġetc": 5381,
      "alls": 5382,
      "minipage": 5383,
      "Ġcharge": 5384,
      "Int": 5385,
      "IF": 5386,
      "Long": 5387,
      "\\;\\": 5388,
      "nother": 5389,
      "Ġeyes": 5390,
      "\\\\[": 5391,
      "Write": 5392,
      "hed": 5393,
      "imum": 5394,
      "body": 5395,
      "ĠCan": 5396,
      "Ġpropa": 5397,
      "Ġgreen": 5398,
      "Polynomial": 5399,
      "connected": 5400,
      "ideo": 5401,
      "Ġsy": 5402,
      "Ġalign": 5403,
      "Ġissue": 5404,
      "State": 5405,
      "Ġcoinci": 5406,
      "Ġslo": 5407,
      "ION": 5408,
      "ĠInte": 5409,
      "orting": 5410,
      "ĠDi": 5411,
      "gr": 5412,
      "Ġcreated": 5413,
      "imin": 5414,
      "homology": 5415,
      "Ġscatter": 5416,
      "prover": 5417,
      "omial": 5418,
      "Ġproceed": 5419,
      "Ġ\\approx": 5420,
      "DA": 5421,
      "Ġcontinue": 5422,
      "Ġaudi": 5423,
      "chitz": 5424,
      "Ġprocessing": 5425,
      "Ġsections": 5426,
      "Ġ<=": 5427,
      "Ġlooking": 5428,
      "^+$": 5429,
      "ĠSimilarly": 5430,
      "CS": 5431,
      "ĠUniversity": 5432,
      "Ġmedia": 5433,
      "Ġpiece": 5434,
      ">(": 5435,
      "Ġlimits": 5436,
      "Ġnecessarily": 5437,
      "ered": 5438,
      "Ġ\\norm": 5439,
      "ĠâĦķ": 5440,
      "ĠAlgorithm": 5441,
      "apla": 5442,
      "Ġuniversal": 5443,
      "vities": 5444,
      "Ġvertical": 5445,
      "Ġtravel": 5446,
      "Ġmarg": 5447,
      "Ġmaterial": 5448,
      "ried": 5449,
      "Ġstatistical": 5450,
      "Ġgeneric": 5451,
      "Ġespecially": 5452,
      "Ġtrace": 5453,
      "cale": 5454,
      "tree": 5455,
      "Ġcra": 5456,
      "pschitz": 5457,
      "Ġreve": 5458,
      "Ġwriting": 5459,
      "Ġinequalities": 5460,
      "-\\": 5461,
      ":main": 5462,
      "ĠĠby": 5463,
      "Ġconjug": 5464,
      "Ġmanagement": 5465,
      "Space": 5466,
      "\\varrho": 5467,
      "Ġschool": 5468,
      "omy": 5469,
      "\\color": 5470,
      "Ġthroughout": 5471,
      "ĠMore": 5472,
      "Ġscienti": 5473,
      "Ġnone": 5474,
      "ĊĊĊĊĊĊĊĊ": 5475,
      "Ġ\\mathscr": 5476,
      "Ġarti": 5477,
      "\\med": 5478,
      "Ġdigital": 5479,
      "ĠOut": 5480,
      "uff": 5481,
      "Ġdense": 5482,
      "gni": 5483,
      "formal": 5484,
      "paces": 5485,
      "iving": 5486,
      "cripts": 5487,
      "timate": 5488,
      "Ġintegr": 5489,
      "ĠFin": 5490,
      "ĠIt's": 5491,
      "true": 5492,
      "angu": 5493,
      "Ġselection": 5494,
      "Ġchoices": 5495,
      "Ġsphere": 5496,
      "lexi": 5497,
      "ski": 5498,
      "Ġtraditional": 5499,
      "ĠCreate": 5500,
      "Ġitem": 5501,
      "iver": 5502,
      "Ġmatching": 5503,
      "Ġearly": 5504,
      "Ġgot": 5505,
      "mn": 5506,
      "ĠĠS": 5507,
      "Ġensuring": 5508,
      "ĠReg": 5509,
      "Ġverify": 5510,
      "ender": 5511,
      "Ġgain": 5512,
      "Ġ//": 5513,
      "eper": 5514,
      "Ġsuffices": 5515,
      "formed": 5516,
      "ĠIntroduction": 5517,
      "Ġyou're": 5518,
      "ET": 5519,
      "asu": 5520,
      "ste": 5521,
      "Ġ\\,\\": 5522,
      "Add": 5523,
      "perim": 5524,
      "Ġimply": 5525,
      "Ġstraightforward": 5526,
      "Ġscenarios": 5527,
      "Ġdatasets": 5528,
      "tian": 5529,
      "Ġrectangle": 5530,
      "radi": 5531,
      "words": 5532,
      "arding": 5533,
      "bet": 5534,
      "total": 5535,
      "Ġcombined": 5536,
      "Ġnamed": 5537,
      "Ġwid": 5538,
      "<<": 5539,
      "Ġearlier": 5540,
      "Ġfail": 5541,
      "PI": 5542,
      "tability": 5543,
      "Ġapproximately": 5544,
      "\\q": 5545,
      "SU": 5546,
      "ĠHer": 5547,
      "cycle": 5548,
      "Ġquantity": 5549,
      ":p": 5550,
      "ĠAppendix": 5551,
      "mate": 5552,
      "ĠĠĠĠĠĠĠĠĊ": 5553,
      "arth": 5554,
      "Ġcaref": 5555,
      "âĢĶ": 5556,
      "ĠBg": 5557,
      "Ġdoesn't": 5558,
      "Ġsummary": 5559,
      "Ġpow": 5560,
      "Î²": 5561,
      "ĠMy": 5562,
      "\\boldmath": 5563,
      "Ġwhite": 5564,
      "Ġdra": 5565,
      "Ġaffect": 5566,
      "acent": 5567,
      "params": 5568,
      "Ġuncertainty": 5569,
      "abstract": 5570,
      "metric": 5571,
      "Ġbalance": 5572,
      "gain": 5573,
      "Ġsoftware": 5574,
      "Ġquery": 5575,
      "ED": 5576,
      "since": 5577,
      "Ġdynamic": 5578,
      "Ġfill": 5579,
      "Ġ\\dfrac": 5580,
      "Ġyield": 5581,
      "Ġmetrics": 5582,
      "^{{\\": 5583,
      "Ġ\\dot": 5584,
      "\\substack": 5585,
      "Ġinterested": 5586,
      "fier": 5587,
      "ĠĠĠĠĠĠĠĠĠĠĠĠĠĠĠĠĠĠĠĠĠĠĠĠĠĠ": 5588,
      "mathfrak": 5589,
      "Ġangles": 5590,
      "Ġnotice": 5591,
      "sively": 5592,
      "Ġactual": 5593,
      "Ġstarted": 5594,
      "Ġbre": 5595,
      "Ġbottom": 5596,
      "Ġcollabor": 5597,
      "plane": 5598,
      "ĠNd": 5599,
      "tances": 5600,
      "Ġpopular": 5601,
      "Ġlimited": 5602,
      "Ġgap": 5603,
      "Ġreli": 5604,
      "pec": 5605,
      "elif": 5606,
      "bounded": 5607,
      "rows": 5608,
      "dr": 5609,
      "Ġang": 5610,
      "aving": 5611,
      "Ġcandid": 5612,
      "Ġweighted": 5613,
      "Ġentanglement": 5614,
      "Ġindicates": 5615,
      "\\),": 5616,
      "SL": 5617,
      "rang": 5618,
      "rix": 5619,
      "Ġmes": 5620,
      "Ġallowed": 5621,
      "Ġacts": 5622,
      "ened": 5623,
      "Ġexhi": 5624,
      "Ġgames": 5625,
      "Ġcosts": 5626,
      "Ġcomplement": 5627,
      "active": 5628,
      "Ġshared": 5629,
      "ĠAdditionally": 5630,
      "Ġwhenever": 5631,
      "Im": 5632,
      "Ġregard": 5633,
      "Can": 5634,
      "Ġ\\min": 5635,
      "Ġinstru": 5636,
      "Ġcoll": 5637,
      "isation": 5638,
      "Ġgovern": 5639,
      "Ġbias": 5640,
      "ask": 5641,
      "Ġhidden": 5642,
      "chain": 5643,
      "Ġgeodes": 5644,
      "nes": 5645,
      "Ġrig": 5646,
      "Ġincreased": 5647,
      "inner": 5648,
      "Ġcone": 5649,
      "AG": 5650,
      "ather": 5651,
      "Ġ\\mathsf": 5652,
      "bot": 5653,
      "Ġsurfaces": 5654,
      "Ġintervals": 5655,
      "pu": 5656,
      "Ġpage": 5657,
      "pto": 5658,
      "ĠCont": 5659,
      "Ġexpress": 5660,
      "bration": 5661,
      "Ġdesigned": 5662,
      "Ġparame": 5663,
      "atively": 5664,
      "Ġshowing": 5665,
      "seq": 5666,
      "Ġcompany": 5667,
      "Ġpractical": 5668,
      "Ġabelian": 5669,
      "\\medskip": 5670,
      "Ġcompati": 5671,
      "Ġidentified": 5672,
      "ky": 5673,
      "anks": 5674,
      "ayes": 5675,
      "Ġshowed": 5676,
      "Ġparticip": 5677,
      "Ġexperiences": 5678,
      "Ġinputs": 5679,
      "ĠRemark": 5680,
      "ana": 5681,
      "hensive": 5682,
      "\\tiny": 5683,
      "medi": 5684,
      "Ġmagnitude": 5685,
      "gue": 5686,
      "hape": 5687,
      "Ġgoes": 5688,
      "Ġpowerful": 5689,
      "ercise": 5690,
      "Model": 5691,
      "ixed": 5692,
      "odot": 5693,
      "ancial": 5694,
      "Mon": 5695,
      "Ġjoint": 5696,
      "termin": 5697,
      "ÂłÂł": 5698,
      "Ġdetail": 5699,
      "Ġrelatively": 5700,
      "âĢľ": 5701,
      "That": 5702,
      "ĉ\\label": 5703,
      "sequences": 5704,
      "Ġdivisor": 5705,
      "grad": 5706,
      "Ġinfinity": 5707,
      "orical": 5708,
      "Ġprinciples": 5709,
      "Ġoption": 5710,
      ":n": 5711,
      "Ġdistinguish": 5712,
      ",\\": 5713,
      "Ġgalaxies": 5714,
      "\\under": 5715,
      "empty": 5716,
      "meric": 5717,
      "Ġreconst": 5718,
      "stant": 5719,
      "Ġtactic": 5720,
      "\\boxed": 5721,
      "Ġrelax": 5722,
      "Ġlibrary": 5723,
      "inted": 5724,
      "ably": 5725,
      "Ġ\\Vert": 5726,
      "Ġwide": 5727,
      "OT": 5728,
      "criptsize": 5729,
      "\\det": 5730,
      ":d": 5731,
      "ee": 5732,
      "user": 5733,
      "tituting": 5734,
      "ai": 5735,
      "square": 5736,
      "ki": 5737,
      "ĠLag": 5738,
      "Ġdemonstrate": 5739,
      "Ġinclusion": 5740,
      "Ġhighlight": 5741,
      "Ġmusic": 5742,
      "subsec": 5743,
      "Ġstage": 5744,
      "\\\\\\": 5745,
      "Ġsustain": 5746,
      "ollowing": 5747,
      "choose": 5748,
      "lines": 5749,
      "force": 5750,
      "Ġdiscre": 5751,
      "Ġsix": 5752,
      "Ġunitary": 5753,
      "Ġdemand": 5754,
      "Ġelliptic": 5755,
      "ĠII": 5756,
      "Ġacceler": 5757,
      "Ġscience": 5758,
      "metic": 5759,
      "Ġsimplify": 5760,
      "Tr": 5761,
      "Ġachieved": 5762,
      "Ġnonzero": 5763,
      "Ġeth": 5764,
      "learly": 5765,
      "Case": 5766,
      "Ġclos": 5767,
      "outh": 5768,
      "\\simeq": 5769,
      "Ġestablished": 5770,
      "Ġmodified": 5771,
      "method": 5772,
      "ĠMath": 5773,
      "eti": 5774,
      "Ġformulas": 5775,
      ":M": 5776,
      "chn": 5777,
      "Ġprobabilities": 5778,
      "conds": 5779,
      "Ġsummari": 5780,
      "rith": 5781,
      "Ġexpect": 5782,
      "Ġinternal": 5783,
      "urally": 5784,
      "Ġpermutation": 5785,
      "factor": 5786,
      "join": 5787,
      "Ġchildren": 5788,
      "Sp": 5789,
      "Ġer": 5790,
      "Ġpi": 5791,
      "IG": 5792,
      "\\bb": 5793,
      "Ġfriend": 5794,
      "Ġdest": 5795,
      "Ġarc": 5796,
      "Ġexternal": 5797,
      "ĠâĪĢ": 5798,
      "Ġdivided": 5799,
      "Ġnames": 5800,
      "Ġattemp": 5801,
      "Ġsquares": 5802,
      "Ġroom": 5803,
      "Ġamplitude": 5804,
      "sus": 5805,
      "Ġpredictions": 5806,
      "Ġfair": 5807,
      "efore": 5808,
      "ficial": 5809,
      "Ġordered": 5810,
      "Ġmoney": 5811,
      "Ġreader": 5812,
      "mass": 5813,
      "boost": 5814,
      "Ġlift": 5815,
      "oring": 5816,
      "Ġrecogn": 5817,
      "Ġmoving": 5818,
      "Ġplayer": 5819,
      "Ġcommand": 5820,
      "Ġinsights": 5821,
      "Ġmet": 5822,
      "cut": 5823,
      "Ġincluded": 5824,
      "EC": 5825,
      "varphi": 5826,
      "Ġ\\textsc": 5827,
      "Ġvariation": 5828,
      "fold": 5829,
      "Ġcity": 5830,
      "Ã©": 5831,
      "Ġrecomm": 5832,
      "nat": 5833,
      "ounds": 5834,
      "coming": 5835,
      "elt": 5836,
      "serve": 5837,
      "Ġconnections": 5838,
      "ribution": 5839,
      "move": 5840,
      "\\paragraph": 5841,
      "Ġvi": 5842,
      "ĠBb": 5843,
      "mode": 5844,
      "Ġcopy": 5845,
      "repres": 5846,
      "ifies": 5847,
      "Ġfinally": 5848,
      "models": 5849,
      "poly": 5850,
      "Ġmodern": 5851,
      "âĨ": 5852,
      "Ġadjust": 5853,
      "ffer": 5854,
      "Ġ\\var": 5855,
      "spect": 5856,
      "HS": 5857,
      "Ġrequirements": 5858,
      "tensor": 5859,
      "itename": 5860,
      "Ġlogarith": 5861,
      "Ġexci": 5862,
      "tible": 5863,
      "https": 5864,
      "Ġmanip": 5865,
      "Ġscre": 5866,
      "Ġtrying": 5867,
      "Ġformation": 5868,
      "Ġemission": 5869,
      "tw": 5870,
      "ĠGener": 5871,
      "rence": 5872,
      "Ġcontributions": 5873,
      "xb": 5874,
      "Ġbelongs": 5875,
      "crimin": 5876,
      "itenamefont": 5877,
      "aa": 5878,
      "Ġactive": 5879,
      "ĠĠf": 5880,
      "Ġrepresenting": 5881,
      "Reg": 5882,
      "pected": 5883,
      "Ġpati": 5884,
      "Time": 5885,
      "ĠĠF": 5886,
      "Ġcategories": 5887,
      "textsf": 5888,
      "oli": 5889,
      "Ġturns": 5890,
      "Ġdy": 5891,
      "condition": 5892,
      "}$": 5893,
      "Ġdefining": 5894,
      "high": 5895,
      "/TAC": 5896,
      "/STATE": 5897,
      "reci": 5898,
      "Ġbrief": 5899,
      "Ġjump": 5900,
      "Number": 5901,
      "ĠPa": 5902,
      "Ġhorizontal": 5903,
      "chy": 5904,
      "NR": 5905,
      "Ġ\\emptyset": 5906,
      "mplex": 5907,
      "ĠLear": 5908,
      "Ġcat": 5909,
      "Ġsegment": 5910,
      "Ġconditional": 5911,
      "All": 5912,
      "Ġpositions": 5913,
      "\\U": 5914,
      "arra": 5915,
      "une": 5916,
      "Ġbring": 5917,
      "Ġdevice": 5918,
      "Ġhyperbolic": 5919,
      "goal": 5920,
      ":B": 5921,
      "Ġoutcomes": 5922,
      "ĠRecall": 5923,
      "avig": 5924,
      "\\M": 5925,
      "tf": 5926,
      "ln": 5927,
      "NS": 5928,
      "Ġspir": 5929,
      "PROOF": 5930,
      "ĠCla": 5931,
      ":P": 5932,
      "Ġdef": 5933,
      "Do": 5934,
      "Ġcapture": 5935,
      "Ġassess": 5936,
      "last": 5937,
      "pects": 5938,
      "ensors": 5939,
      "ĠGre": 5940,
      "Ġstatements": 5941,
      "sities": 5942,
      "Ġexpectation": 5943,
      "ulo": 5944,
      "aged": 5945,
      "tries": 5946,
      "alt": 5947,
      "Ġstatistics": 5948,
      "Ġpush": 5949,
      "Ġhope": 5950,
      "har": 5951,
      "Ġmaterials": 5952,
      "equations": 5953,
      "Ġrise": 5954,
      "Ġfloat": 5955,
      "Ġgets": 5956,
      "grid": 5957,
      "rink": 5958,
      "Ġfib": 5959,
      "ama": 5960,
      "ĉĉĉĉĉ": 5961,
      "kl": 5962,
      "Ġjus": 5963,
      "corre": 5964,
      "\\O": 5965,
      "Ġpy": 5966,
      "^h": 5967,
      "Ġprecise": 5968,
      "Ġmedi": 5969,
      "Ġagent": 5970,
      "Ġcomprehensive": 5971,
      "Ġtests": 5972,
      "Your": 5973,
      "Ġassuming": 5974,
      "Ġstress": 5975,
      ":]": 5976,
      "arr": 5977,
      "ĉĉĊ": 5978,
      "\\backslash": 5979,
      "ĠĊĠĠĠĠĠĠĠĠ": 5980,
      "Cont": 5981,
      "Ne": 5982,
      "ĠLet's": 5983,
      "Ġmixed": 5984,
      "Ġhomomorphism": 5985,
      "ressing": 5986,
      "Sum": 5987,
      "Ġmathematics": 5988,
      "Ġsimultane": 5989,
      "ĠCol": 5990,
      ":C": 5991,
      "Ġabsor": 5992,
      "Ġshor": 5993,
      "ching": 5994,
      "'}$": 5995,
      "Ġtook": 5996,
      "Ġinterior": 5997,
      "Ġmechanism": 5998,
      "Ġelectric": 5999,
      "column": 6000,
      "'(\\": 6001,
      "Ġgenerality": 6002,
      "tz": 6003,
      "Ġid": 6004,
      "ĠAdd": 6005,
      "mitted": 6006,
      "Ġengage": 6007,
      "Ġdate": 6008,
      "Gener": 6009,
      "\\/": 6010,
      "Ġquantities": 6011,
      "Ġfollowed": 6012,
      "pred": 6013,
      "link": 6014,
      "complex": 6015,
      "Ġtransformations": 6016,
      "ĠFind": 6017,
      "Ġsimilarly": 6018,
      "Ġindicate": 6019,
      "Ġgeneration": 6020,
      "Ro": 6021,
      "Ġasser": 6022,
      "double": 6023,
      "estion": 6024,
      "Ġservice": 6025,
      "rime": 6026,
      "ests": 6027,
      "\\bibfnamefont": 6028,
      "Ġmodules": 6029,
      "Ġprecision": 6030,
      "ister": 6031,
      "location": 6032,
      "ĠĠC": 6033,
      "thick": 6034,
      "differe": 6035,
      "llar": 6036,
      "ĠQd": 6037,
      "\\lfloor": 6038,
      "Ġspecies": 6039,
      "amp": 6040,
      "\\lesssim": 6041,
      "IV": 6042,
      "Ġfiles": 6043,
      "\\bigcup": 6044,
      "Ġmu": 6045,
      ":c": 6046,
      "tick": 6047,
      "beled": 6048,
      "Ġ\\textrm": 6049,
      "Ġwhereas": 6050,
      "pecifically": 6051,
      "Ġremove": 6052,
      "Ġadjacent": 6053,
      "ĠĠIt": 6054,
      "Ġidentical": 6055,
      "Ġ\\g": 6056,
      "Ġgenerator": 6057,
      "otent": 6058,
      "Ġemb": 6059,
      "alty": 6060,
      "ĠEquation": 6061,
      "ags": 6062,
      "bm": 6063,
      "/N": 6064,
      "Ġalpha": 6065,
      ":L": 6066,
      "product": 6067,
      "functions": 6068,
      "enote": 6069,
      "Ġfinish": 6070,
      "Ġcapacity": 6071,
      "Ġtwice": 6072,
      "Ġbeg": 6073,
      "Ġimplications": 6074,
      "Range": 6075,
      "claim": 6076,
      "Ġdoing": 6077,
      "Per": 6078,
      "Ġhour": 6079,
      "ĠSp": 6080,
      "rug": 6081,
      "Ġuniverse": 6082,
      "\\mb": 6083,
      "ĠDevelop": 6084,
      "ĠAmeric": 6085,
      "oul": 6086,
      "Des": 6087,
      "Ġestimator": 6088,
      "Ġreplaced": 6089,
      "Ġreduces": 6090,
      "Return": 6091,
      "Ġart": 6092,
      "ounts": 6093,
      "Ġlogic": 6094,
      "ropic": 6095,
      "/m": 6096,
      "ĠĠas": 6097,
      "Ġadmits": 6098,
      "HE": 6099,
      "While": 6100,
      "'ve": 6101,
      "pecial": 6102,
      "Ġimproved": 6103,
      "Ġregime": 6104,
      "ĠEuler": 6105,
      "Ġmeta": 6106,
      "Ġdeeper": 6107,
      "Ġremainder": 6108,
      "Ġprogress": 6109,
      "NA": 6110,
      "ĠĠĠĠĠĠĠĠĠĠĠĠĠĠĠ": 6111,
      "IP": 6112,
      "Ġassis": 6113,
      "Ġever": 6114,
      "rangian": 6115,
      "CM": 6116,
      "&&\\": 6117,
      "Ġphoton": 6118,
      "ystems": 6119,
      "Ġtreatment": 6120,
      "gated": 6121,
      "Ġbenefits": 6122,
      "ĠEuclidean": 6123,
      "Ġyoung": 6124,
      "ini": 6125,
      "instance": 6126,
      "gon": 6127,
      "cident": 6128,
      "Ġ\\Cref": 6129,
      "Ġcustomer": 6130,
      "pled": 6131,
      "band": 6132,
      "Fra": 6133,
      "displaymath": 6134,
      "dients": 6135,
      "func": 6136,
      "care": 6137,
      "Ġservices": 6138,
      "Ġextrem": 6139,
      "used": 6140,
      "labels": 6141,
      "obj": 6142,
      "World": 6143,
      "problem": 6144,
      "Ġenhance": 6145,
      "\\N": 6146,
      "\\per": 6147,
      "Ġsometimes": 6148,
      "----": 6149,
      "Ġformulation": 6150,
      "ĠModel": 6151,
      "ĠPre": 6152,
      "Ġsettings": 6153,
      "Ġaxi": 6154,
      "loop": 6155,
      "ali": 6156,
      "Ġgiving": 6157,
      "Ġtf": 6158,
      "period": 6159,
      "uniform": 6160,
      "uzz": 6161,
      "itud": 6162,
      "Ġaspects": 6163,
      "Ġpanel": 6164,
      "Ge": 6165,
      "Ġgene": 6166,
      "mul": 6167,
      "roid": 6168,
      "Ġsec": 6169,
      "called": 6170,
      "ĠNa": 6171,
      "TR": 6172,
      "Ġtrig": 6173,
      "ĠBo": 6174,
      "Ġhighest": 6175,
      "bon": 6176,
      "mannian": 6177,
      "Ġbuilt": 6178,
      "year": 6179,
      "Ġdim": 6180,
      "Ġproofs": 6181,
      "rithmetic": 6182,
      "Ġdatabase": 6183,
      "semble": 6184,
      "Ġprincipal": 6185,
      "PU": 6186,
      "Var": 6187,
      "Ġsaf": 6188,
      "pherical": 6189,
      "ĉ0": 6190,
      "Ġjour": 6191,
      "ĠĠĠĠĠĠĠĠĠĠĠĠĠĠĠĠĠĠĠĠĠĠĠĠĠĠĠĠĠĠ": 6192,
      "Ġpseudo": 6193,
      "Ġ\\|_{": 6194,
      "SC": 6195,
      "Tra": 6196,
      "Ġhighly": 6197,
      "Ġclean": 6198,
      "umin": 6199,
      "Ġattra": 6200,
      "auchy": 6201,
      "zy": 6202,
      "parameters": 6203,
      "shift": 6204,
      "Ġexception": 6205,
      "tang": 6206,
      "bc": 6207,
      "Ġled": 6208,
      "ridge": 6209,
      "ffe": 6210,
      "Ġproves": 6211,
      "Ġheart": 6212,
      "ĠPoisson": 6213,
      "Ġaver": 6214,
      "Ġopposite": 6215,
      "Ġspectra": 6216,
      "Ġoptical": 6217,
      "Ġseparate": 6218,
      "ĠHere's": 6219,
      "Ġlove": 6220,
      "Ġcohomology": 6221,
      "Ġdeviation": 6222,
      "Ġlearned": 6223,
      "Ġimag": 6224,
      "bin": 6225,
      "object": 6226,
      "Ġworth": 6227,
      "jk": 6228,
      "ĠPhys": 6229,
      "sterior": 6230,
      "\\ll": 6231,
      "gent": 6232,
      "Ġcircuit": 6233,
      "ordinate": 6234,
      "sibility": 6235,
      "ĠMat": 6236,
      "Ġprimary": 6237,
      "next": 6238,
      "Ġeq": 6239,
      "Ġsizes": 6240,
      "Ġslope": 6241,
      "Ġconsisting": 6242,
      "Ġstated": 6243,
      "RT": 6244,
      "Ġmissing": 6245,
      "initial": 6246,
      "polation": 6247,
      "ĠSee": 6248,
      "url": 6249,
      "Ġatoms": 6250,
      "~(": 6251,
      "ownarrow": 6252,
      "modules": 6253,
      "ace": 6254,
      "Ġinterpretation": 6255,
      "urations": 6256,
      "Ġpull": 6257,
      "Ġcolors": 6258,
      "ĠLapla": 6259,
      "reedom": 6260,
      "Ġformed": 6261,
      "sche": 6262,
      "ĠList": 6263,
      "dataset": 6264,
      "Ġcontact": 6265,
      "root": 6266,
      "Ġrecently": 6267,
      "Ġimplemented": 6268,
      "cin": 6269,
      "arity": 6270,
      "DB": 6271,
      "ĠInter": 6272,
      "Ġserver": 6273,
      "Ġsuggests": 6274,
      "Here's": 6275,
      "Fe": 6276,
      "osity": 6277,
      "Ġclosure": 6278,
      "ĠQe": 6279,
      "Ġangular": 6280,
      "Ġleaves": 6281,
      "las": 6282,
      "Ġfinancial": 6283,
      "second": 6284,
      "hol": 6285,
      "aut": 6286,
      "Ġgenerators": 6287,
      "ĠMan": 6288,
      "Ġclusters": 6289,
      "sep": 6290,
      "Ġcommutative": 6291,
      "Ġcontribute": 6292,
      "lug": 6293,
      "ĠAnalysis": 6294,
      "Ġ\\underline": 6295,
      "Ġprograms": 6296,
      "vide": 6297,
      "ello": 6298,
      "irical": 6299,
      "ury": 6300,
      "LT": 6301,
      "'})": 6302,
      "Ġdrop": 6303,
      "Ġtechnical": 6304,
      "Ġfiber": 6305,
      "avy": 6306,
      "Ġrewrite": 6307,
      "\\%$": 6308,
      "bib": 6309,
      "Ġbeam": 6310,
      "ugh": 6311,
      "Ġstationary": 6312,
      "Ġgeneralization": 6313,
      "SD": 6314,
      "\\rfloor": 6315,
      "Ġdynamical": 6316,
      "there": 6317,
      "ĠĠthat": 6318,
      "circle": 6319,
      "čĊčĊčĊčĊ": 6320,
      "lm": 6321,
      "ellow": 6322,
      ":H": 6323,
      "ĠCO": 6324,
      "Ġfluctu": 6325,
      "rand": 6326,
      "Ġsolved": 6327,
      "Ġconfir": 6328,
      "ball": 6329,
      "aw": 6330,
      "Ġdisc": 6331,
      "ĠĠwith": 6332,
      "public": 6333,
      "/k": 6334,
      "\\Xi": 6335,
      "cili": 6336,
      "Ġsil": 6337,
      "Ġscales": 6338,
      "Ġchanging": 6339,
      "\\i": 6340,
      "ĠJohn": 6341,
      "Ġchemical": 6342,
      "'}\\": 6343,
      "deriv": 6344,
      "uc": 6345,
      "Ġruns": 6346,
      "Ġmotiv": 6347,
      "ny": 6348,
      "RL": 6349,
      "Ġwaves": 6350,
      "Ġinduces": 6351,
      "Ġalthough": 6352,
      "Ġweakly": 6353,
      "ĠMarkov": 6354,
      "Ġ\\ln": 6355,
      "Ġquickly": 6356,
      "Ġessentially": 6357,
      "Ġcyclic": 6358,
      "=\\": 6359,
      "^(": 6360,
      "Ġinvolve": 6361,
      "Ġbl": 6362,
      "ublish": 6363,
      "Ġscript": 6364,
      "\\frak": 6365,
      "/d": 6366,
      "Ġwon": 6367,
      "Ġ\\B": 6368,
      "ultirow": 6369,
      "Ġsymbols": 6370,
      "Ġmask": 6371,
      "Ġske": 6372,
      "well": 6373,
      "Ġconvert": 6374,
      "ffic": 6375,
      "Ġpropose": 6376,
      "Ġensures": 6377,
      "bd": 6378,
      "\\hskip": 6379,
      "Ġtheories": 6380,
      "Ġfeasi": 6381,
      "\\!\\!\\!\\!": 6382,
      "Ġlie": 6383,
      "ĠSolution": 6384,
      "partite": 6385,
      "indu": 6386,
      "Ġansw": 6387,
      "Ġnormalized": 6388,
      "orel": 6389,
      "Ġcause": 6390,
      "orig": 6391,
      "Ġdot": 6392,
      "\\,{\\": 6393,
      "ditive": 6394,
      "\\ne": 6395,
      "onent": 6396,
      "After": 6397,
      "Ġiterations": 6398,
      "ĠMo": 6399,
      "states": 6400,
      "čĊĠĠĠĠĠĠĠĠĠĠĠĠ": 6401,
      "ĠBc": 6402,
      "Ġsignificance": 6403,
      "Ġaffe": 6404,
      "Ġenvironmental": 6405,
      "Ġdiverse": 6406,
      "ĠAnalyze": 6407,
      "missible": 6408,
      "embed": 6409,
      "Phi": 6410,
      "Ġdecisions": 6411,
      "Ġchannels": 6412,
      "\\deg": 6413,
      "Ġinspi": 6414,
      "ĠĠto": 6415,
      "Ġign": 6416,
      "'))": 6417,
      "Ġspread": 6418,
      "ĠResearch": 6419,
      "iss": 6420,
      "dire": 6421,
      "zes": 6422,
      "\\mathtt": 6423,
      "Ġstyle": 6424,
      "Ġds": 6425,
      "ÏĢ": 6426,
      "Ma": 6427,
      "igu": 6428,
      "Ġreaction": 6429,
      "Ġcen": 6430,
      "Ġforces": 6431,
      "mplectic": 6432,
      "zeros": 6433,
      "pack": 6434,
      "kin": 6435,
      "Ġscattering": 6436,
      "Ġ\\Pi": 6437,
      "Ġactivity": 6438,
      "vable": 6439,
      "ĠPr": 6440,
      "van": 6441,
      "Ġ\\lesssim": 6442,
      "Ġoc": 6443,
      "Ġdenomin": 6444,
      "ĠEarth": 6445,
      "Ġvirtual": 6446,
      "Ġsomeone": 6447,
      "Map": 6448,
      "ĠKf": 6449,
      "Ġsimplicity": 6450,
      "ues": 6451,
      "See": 6452,
      "orn": 6453,
      "Ġdecreasing": 6454,
      "Bo": 6455,
      "vitational": 6456,
      "ĠĠs": 6457,
      "Ġinvestigate": 6458,
      "pendence": 6459,
      "Real": 6460,
      "Ġcovariance": 6461,
      "complete": 6462,
      "ĠĠSince": 6463,
      "Ġdevices": 6464,
      "gt": 6465,
      "Ġadvance": 6466,
      "Ġdomains": 6467,
      "erti": 6468,
      "Ġdegener": 6469,
      "Ġpreviously": 6470,
      "Ġthing": 6471,
      "parrow": 6472,
      "ĠĠĠĠĠĠĠĠĠĠĠĠĠĠĠĠĠĠĠ": 6473,
      "ays": 6474,
      "ĠScience": 6475,
      "Ġsenti": 6476,
      "ĉĠ": 6477,
      "Ġdigits": 6478,
      "Ġgoals": 6479,
      "\\textsc": 6480,
      "Ġmanifolds": 6481,
      "SA": 6482,
      "Ġswitch": 6483,
      "ĠMulti": 6484,
      "Ġdirections": 6485,
      "suming": 6486,
      "Ġdivisible": 6487,
      "mash": 6488,
      "Def": 6489,
      "cover": 6490,
      "Ġtopic": 6491,
      "Ġnovel": 6492,
      "Ġinteract": 6493,
      "Ġkine": 6494,
      "Ġann": 6495,
      "Ġtypical": 6496,
      "\\mathit": 6497,
      "Ġcycles": 6498,
      "bing": 6499,
      "Ġfeet": 6500,
      "chang": 6501,
      "Ġeasier": 6502,
      "stream": 6503,
      "obs": 6504,
      "weak": 6505,
      "Ġstabil": 6506,
      "Ġvaluable": 6507,
      "Ġreducing": 6508,
      "String": 6509,
      "Ġactivities": 6510,
      "cill": 6511,
      "ĠOther": 6512,
      "Ġproduced": 6513,
      "tives": 6514,
      "ĠMar": 6515,
      "ane": 6516,
      "ĠCase": 6517,
      "\\triangle": 6518,
      "etal": 6519,
      "ĉ$": 6520,
      "Ġstream": 6521,
      "default": 6522,
      "Ġadvantage": 6523,
      "\\(": 6524,
      "\\perp": 6525,
      "',\\": 6526,
      "Ġcontinuity": 6527,
      "Ġcommunities": 6528,
      "Ġrestricted": 6529,
      "ssess": 6530,
      "Ġprofession": 6531,
      "speci": 6532,
      "Ġlikelihood": 6533,
      "Ġdele": 6534,
      "overline": 6535,
      "xa": 6536,
      "Ġtrip": 6537,
      "Ġhole": 6538,
      "veness": 6539,
      "ĠĊĠĠĠ": 6540,
      "Ġprevent": 6541,
      "Ġ\\simeq": 6542,
      "flat": 6543,
      "Ġfamil": 6544,
      "Ġstrings": 6545,
      "tail": 6546,
      "when": 6547,
      "sch": 6548,
      "core": 6549,
      "Ġencoura": 6550,
      "Ġlinearly": 6551,
      "ading": 6552,
      "\\texttt": 6553,
      "Thm": 6554,
      "Ġschemes": 6555,
      "\\scriptsize": 6556,
      "ND": 6557,
      "marg": 6558,
      "Ġeconomic": 6559,
      "Ġpieces": 6560,
      "Ġfaster": 6561,
      "SM": 6562,
      "Longrightarrow": 6563,
      "dom": 6564,
      "Find": 6565,
      "Ġsin": 6566,
      "ĠâĬ": 6567,
      "Ġbul": 6568,
      "itations": 6569,
      "coder": 6570,
      "ĠExp": 6571,
      "Ġcook": 6572,
      "Ġhomotopy": 6573,
      "men": 6574,
      "Ġholomorphic": 6575,
      "Ġpix": 6576,
      "Ġtruth": 6577,
      "Ġexponent": 6578,
      "Ġconvolution": 6579,
      "Ġentry": 6580,
      "torch": 6581,
      "eties": 6582,
      "Ġnavig": 6583,
      "Ġdistances": 6584,
      "chron": 6585,
      "lay": 6586,
      "approxima": 6587,
      "licated": 6588,
      "score": 6589,
      "Ġwin": 6590,
      "ĠĠe": 6591,
      "Ġhydro": 6592,
      "lative": 6593,
      "Ġappreci": 6594,
      "Ġmodulo": 6595,
      "Hz": 6596,
      "imple": 6597,
      "Ġstack": 6598,
      "ror": 6599,
      "aling": 6600,
      "generate": 6601,
      "Ġintr": 6602,
      "Ġvideo": 6603,
      "ĠMay": 6604,
      "Ġexchange": 6605,
      ":h": 6606,
      "vative": 6607,
      "del": 6608,
      "ipped": 6609,
      "\\make": 6610,
      "Ġpredict": 6611,
      "Ġimprovement": 6612,
      "Ġspecifically": 6613,
      "vised": 6614,
      "ynamic": 6615,
      "Ġdash": 6616,
      "mbining": 6617,
      "Ġouter": 6618,
      "vs": 6619,
      "orage": 6620,
      "Ġtun": 6621,
      "anach": 6622,
      "neg": 6623,
      "Ġaccep": 6624,
      "Ġ\\bibinfo": 6625,
      "Ġelectro": 6626,
      "Ġstudent": 6627,
      "Ġsecre": 6628,
      "partment": 6629,
      "Ġexplanation": 6630,
      "rown": 6631,
      "pow": 6632,
      "Ġ\\longrightarrow": 6633,
      "Ġfreedom": 6634,
      ":A": 6635,
      "Ġinstances": 6636,
      "PP": 6637,
      "hic": 6638,
      "Ġchoosing": 6639,
      "Ġpowers": 6640,
      "dependent": 6641,
      "Ġasked": 6642,
      "Ġparab": 6643,
      "Ġarchitecture": 6644,
      "Ġfamilies": 6645,
      "Ġhistorical": 6646,
      "Ġmanner": 6647,
      "cian": 6648,
      "straction": 6649,
      "Ġ\\leqslant": 6650,
      "Ġplayers": 6651,
      "Ġmonitor": 6652,
      "Ġstatic": 6653,
      "')\\": 6654,
      "ĠOver": 6655,
      "ierarch": 6656,
      "CE": 6657,
      "Ġharmonic": 6658,
      "Ġarithmetic": 6659,
      "Ġ\\Theta": 6660,
      "Ġperturbation": 6661,
      ":F": 6662,
      ":G": 6663,
      "vertex": 6664,
      "hook": 6665,
      "Ġinterface": 6666,
      "Ġsays": 6667,
      "Script": 6668,
      "âĢĵ": 6669,
      "Ġtrained": 6670,
      "ĠðĿ": 6671,
      "Ġchallenge": 6672,
      "Ġelementary": 6673,
      "plus": 6674,
      "Ġoutcome": 6675,
      "dz": 6676,
      "ativity": 6677,
      "\\ps": 6678,
      "ford": 6679,
      "Ġindustry": 6680,
      "Ġva": 6681,
      "Ġconvers": 6682,
      "Ġpicture": 6683,
      "'-": 6684,
      "Ġmolecu": 6685,
      "ĠâĢ¢": 6686,
      "^*(\\": 6687,
      "Ġrapid": 6688,
      "\\inf": 6689,
      "\\al": 6690,
      "Ġplays": 6691,
      "domain": 6692,
      "amond": 6693,
      "Ġthermal": 6694,
      "Ġamb": 6695,
      "Ġchallenging": 6696,
      "cr": 6697,
      "Ġmoments": 6698,
      "bles": 6699,
      "distance": 6700,
      "Ġrem": 6701,
      "^M": 6702,
      "Ġ\\f": 6703,
      "ä¸": 6704,
      "herence": 6705,
      "rad": 6706,
      "Ġep": 6707,
      "kern": 6708,
      "full": 6709,
      "Ġrich": 6710,
      "ano": 6711,
      "Ġhelpful": 6712,
      "Left": 6713,
      "Input": 6714,
      "eqq": 6715,
      "Ġdiscrimin": 6716,
      "acy": 6717,
      "convex": 6718,
      "Ġthank": 6719,
      "ĠFunction": 6720,
      "Ġphi": 6721,
      "ĠKh": 6722,
      "Ġmut": 6723,
      "symmetric": 6724,
      "Ġintegrals": 6725,
      "ĠĠBy": 6726,
      "mpt": 6727,
      "Ġbegan": 6728,
      "Ġstarts": 6729,
      "Ġbooks": 6730,
      "mselves": 6731,
      "only": 6732,
      "Ġconfidence": 6733,
      "Ġqubit": 6734,
      "implies": 6735,
      "Ġcodes": 6736,
      "ulum": 6737,
      "theses": 6738,
      "names": 6739,
      "Ġdependent": 6740,
      "Ġprepa": 6741,
      "Rel": 6742,
      "illa": 6743,
      "Ġ\\x": 6744,
      "Comm": 6745,
      "ben": 6746,
      "andom": 6747,
      "Ġnothing": 6748,
      "Ġargs": 6749,
      "mediate": 6750,
      "certain": 6751,
      "vacy": 6752,
      "TT": 6753,
      "update": 6754,
      "ĠLipschitz": 6755,
      "Ġsituations": 6756,
      "PECT": 6757,
      "Ġmill": 6758,
      "ols": 6759,
      "theless": 6760,
      ":m": 6761,
      "\\check": 6762,
      "Ġmechanics": 6763,
      "DS": 6764,
      "rb": 6765,
      "ĠApply": 6766,
      "flu": 6767,
      "Max": 6768,
      "Ġinjective": 6769,
      "Ġapplies": 6770,
      "inger": 6771,
      "ĠĠif": 6772,
      "Table": 6773,
      "mem": 6774,
      "ĠKg": 6775,
      "\\odot": 6776,
      "ĠWh": 6777,
      "Ġmiddle": 6778,
      "Group": 6779,
      "Ġthemselves": 6780,
      "compact": 6781,
      "Multi": 6782,
      "Ġast": 6783,
      "mart": 6784,
      "Ġdescribes": 6785,
      "secu": 6786,
      "Ġregularity": 6787,
      "cro": 6788,
      "ĠÎ²": 6789,
      "posed": 6790,
      "tages": 6791,
      "Ġgeodesic": 6792,
      "stand": 6793,
      "BM": 6794,
      "Ġextract": 6795,
      "Ġboundaries": 6796,
      "enced": 6797,
      "manifold": 6798,
      "Ġknot": 6799,
      "mitive": 6800,
      "istence": 6801,
      "criptscriptstyle": 6802,
      "ĠĠĊĠĠ": 6803,
      "gers": 6804,
      "ariant": 6805,
      "Ġdivision": 6806,
      "Ġextends": 6807,
      "loat": 6808,
      "Ġeverything": 6809,
      "writ": 6810,
      "Ġjourney": 6811,
      "Ġballs": 6812,
      "Ġhouse": 6813,
      "Ġbeginning": 6814,
      "EM": 6815,
      "Ġhappens": 6816,
      "titution": 6817,
      "\\multicolumn": 6818,
      "ĠYour": 6819,
      "above": 6820,
      "\\textnormal": 6821,
      "za": 6822,
      "My": 6823,
      "Ġencoun": 6824,
      "Definition": 6825,
      "ĠĠĠĠĠĠĠĠĠĠĠĠĠĠĠĠĠĠĠĠĠ": 6826,
      "Ġmoves": 6827,
      "exact": 6828,
      "Ġguess": 6829,
      "ium": 6830,
      "Ġcorrectly": 6831,
      "Ġlengths": 6832,
      "Ġorientation": 6833,
      "Ġsplitting": 6834,
      "Ġzeros": 6835,
      "equival": 6836,
      "Ġseconds": 6837,
      "lecting": 6838,
      "New": 6839,
      "Ġseem": 6840,
      "Ġexplained": 6841,
      "Ġcharacteristics": 6842,
      "Ġrandomly": 6843,
      "Ġ\\ket": 6844,
      "Ġstop": 6845,
      "bal": 6846,
      "^L": 6847,
      "Ġgravity": 6848,
      "Ġsubgraph": 6849,
      "util": 6850,
      "Ġcollision": 6851,
      "Di": 6852,
      "air": 6853,
      "source": 6854,
      "db": 6855,
      "Ġdocument": 6856,
      "Ġdictionary": 6857,
      "Inte": 6858,
      "ius": 6859,
      "hs": 6860,
      "gment": 6861,
      "Ġcovering": 6862,
      "Ġ\\not": 6863,
      "Ġcool": 6864,
      "ĠMax": 6865,
      "Ġcompletes": 6866,
      "EXPECT": 6867,
      "Ġadop": 6868,
      "Ġwatch": 6869,
      "irth": 6870,
      "Ġkm": 6871,
      "Ġdiffusion": 6872,
      "vol": 6873,
      "wit": 6874,
      "consist": 6875,
      "Ġinfer": 6876,
      "Ġtrade": 6877,
      "Ġnight": 6878,
      "wargs": 6879,
      "BS": 6880,
      "\\tan": 6881,
      "Ġresidu": 6882,
      "ĠEnglish": 6883,
      "Ġpredicted": 6884,
      "Ġsurround": 6885,
      "Ġmeasurable": 6886,
      "Ġcompeti": 6887,
      "sq": 6888,
      "expected": 6889,
      "Ġdiagrams": 6890,
      "counter": 6891,
      "Ġsat": 6892,
      "Ver": 6893,
      ":T": 6894,
      "Ġreported": 6895,
      "Ġlanguages": 6896,
      "Ġreceived": 6897,
      "Ġrepeated": 6898,
      "Ġcan't": 6899,
      "$\\": 6900,
      "Ġpor": 6901,
      "ulus": 6902,
      "\\th": 6903,
      "obser": 6904,
      "NT": 6905,
      "ĠSte": 6906,
      "GC": 6907,
      "prec": 6908,
      "mar": 6909,
      "what": 6910,
      "ĠEvalu": 6911,
      "Ġanalogous": 6912,
      "upper": 6913,
      "^u": 6914,
      "Ġgetting": 6915,
      "vectors": 6916,
      "ĠCalculate": 6917,
      "Ġnaturally": 6918,
      "'}(": 6919,
      "Ġcriterion": 6920,
      "Ġcombinations": 6921,
      "Ġfacili": 6922,
      "indices": 6923,
      "Ġillustrate": 6924,
      "DM": 6925,
      "Ġwind": 6926,
      "conj": 6927,
      "Ġstronger": 6928,
      "\\parallel": 6929,
      "Ġacces": 6930,
      "Ġdep": 6931,
      "Ġbelieve": 6932,
      "cross": 6933,
      "ography": 6934,
      "Inter": 6935,
      "ĠRd": 6936,
      "Ġfront": 6937,
      "^*,": 6938,
      "Ġwal": 6939,
      "ĠLagrangian": 6940,
      "Ġconfigurations": 6941,
      "positive": 6942,
      "satisf": 6943,
      "sid": 6944,
      "Ġopportunities": 6945,
      ":g": 6946,
      "ossible": 6947,
      "Ġboost": 6948,
      "Ġmiles": 6949,
      "Ġ>=": 6950,
      "Ġretri": 6951,
      "Ġsubsection": 6952,
      "Ġquar": 6953,
      "continuous": 6954,
      "Ġlack": 6955,
      "ĠSec": 6956,
      "lar": 6957,
      "volume": 6958,
      "Ġrequest": 6959,
      "Ġvs": 6960,
      "stering": 6961,
      "III": 6962,
      "}[": 6963,
      "pole": 6964,
      "ctories": 6965,
      "Ġcoherent": 6966,
      "poon": 6967,
      "ĉ\\item": 6968,
      ":param": 6969,
      "Ġsuccessful": 6970,
      "orth": 6971,
      "Ġsetup": 6972,
      "Ġfru": 6973,
      "Ġport": 6974,
      "Ġinitially": 6975,
      "Ġintu": 6976,
      "CL": 6977,
      "ĠCom": 6978,
      "Ġ\\ll": 6979,
      "gray": 6980,
      "Ġregarding": 6981,
      "Ġqubits": 6982,
      "xh": 6983,
      "lient": 6984,
      "magnetic": 6985,
      "monomial": 6986,
      "ĠRf": 6987,
      "FF": 6988,
      "uv": 6989,
      "Ġefficiently": 6990,
      "Ġsentiment": 6991,
      "ung": 6992,
      "ought": 6993,
      "Ġcame": 6994,
      "under": 6995,
      "Ġdefinite": 6996,
      "br": 6997,
      "filter": 6998,
      "Ġsurpr": 6999,
      "leep": 7000,
      "Ġsums": 7001,
      "Ġorders": 7002,
      "thetic": 7003,
      "/h": 7004,
      "reme": 7005,
      "Ġrealized": 7006,
      "phys": 7007,
      "after": 7008,
      "Ġarrange": 7009,
      "Ġshad": 7010,
      "Ġperforming": 7011,
      "Ġcommit": 7012,
      "Ġrespective": 7013,
      "Ġremember": 7014,
      "adic": 7015,
      "ĠSpecifically": 7016,
      "degree": 7017,
      "Ġtriangles": 7018,
      "Ġoutputs": 7019,
      "ĠBayes": 7020,
      "Ġappe": 7021,
      "dri": 7022,
      "^A": 7023,
      "Ġatom": 7024,
      "Ġener": 7025,
      "Ġspend": 7026,
      "Ġphra": 7027,
      "Ġpackage": 7028,
      "Ġrough": 7029,
      "Ġconcerns": 7030,
      "Cal": 7031,
      "ĠJava": 7032,
      "Ġinference": 7033,
      "Ġresource": 7034,
      "Ġtrun": 7035,
      "save": 7036,
      "kk": 7037,
      "Ġboxes": 7038,
      "Ġoffers": 7039,
      "________": 7040,
      "QL": 7041,
      "Ġdirected": 7042,
      "gets": 7043,
      "Ġexclu": 7044,
      "Ġmultiply": 7045,
      "Ġcps": 7046,
      "ulations": 7047,
      "Ġreport": 7048,
      "Ġcam": 7049,
      "Ġleave": 7050,
      "Ġsave": 7051,
      "'])": 7052,
      "ymmetry": 7053,
      "features": 7054,
      "Ġspar": 7055,
      "Ġcop": 7056,
      "ifted": 7057,
      "Ġenjo": 7058,
      "Ġ\\E": 7059,
      "Ġdidn't": 7060,
      "ads": 7061,
      "'|": 7062,
      "cient": 7063,
      "\\Rightarrow": 7064,
      "Ġintric": 7065,
      "mplement": 7066,
      "tx": 7067,
      "Ġten": 7068,
      "Ġtoday": 7069,
      "ancing": 7070,
      "Ġreprodu": 7071,
      "DO": 7072,
      "Ġlot": 7073,
      "Put": 7074,
      "adj": 7075,
      "otropic": 7076,
      "Ġ~\\": 7077,
      "Pr": 7078,
      "âŁ": 7079,
      "system": 7080,
      "ĠĠB": 7081,
      "ĠNumber": 7082,
      "strong": 7083,
      "ĠQc": 7084,
      "\\bs": 7085,
      "Ġorbits": 7086,
      "Ġfluid": 7087,
      "az": 7088,
      "gl": 7089,
      "subequations": 7090,
      "Ġfractional": 7091,
      "Ġgalaxy": 7092,
      "Ġembedded": 7093,
      "llig": 7094,
      "ĠVer": 7095,
      "uro": 7096,
      "\\-": 7097,
      "Ġagents": 7098,
      "rich": 7099,
      "stood": 7100,
      "Ġsimultaneously": 7101,
      "creasing": 7102,
      "final": 7103,
      "also": 7104,
      "Ġ\\displaystyle": 7105,
      "Ġ^{\\": 7106,
      "Ġcompatible": 7107,
      "Ġpoli": 7108,
      "ĠJaco": 7109,
      "&.": 7110,
      "ĠConsequently": 7111,
      "Ġ\\pmod": 7112,
      "Exp": 7113,
      "ĠNat": 7114,
      "\\stack": 7115,
      "\\!|": 7116,
      "'d": 7117,
      "Ġatomic": 7118,
      "Ġbin": 7119,
      "Ġproportional": 7120,
      "Output": 7121,
      "Ġmodeling": 7122,
      "arest": 7123,
      "Ġexploring": 7124,
      "Ġund": 7125,
      "white": 7126,
      "www": 7127,
      "Fin": 7128,
      "rance": 7129,
      "finRange": 7130,
      "Ġabstract": 7131,
      "Each": 7132,
      "sharp": 7133,
      "RI": 7134,
      "cra": 7135,
      "ĠCauchy": 7136,
      "decomp": 7137,
      "ĠĠI": 7138,
      "Ġgravitational": 7139,
      "Ġdise": 7140,
      "Ġpassing": 7141,
      "Ġmesh": 7142,
      "Ġcarry": 7143,
      "SI": 7144,
      "Ġprefere": 7145,
      "Ġsignals": 7146,
      "req": 7147,
      "Ġradial": 7148,
      "Ġagreement": 7149,
      "Ġevaluated": 7150,
      "category": 7151,
      "umu": 7152,
      "edic": 7153,
      "Ġwo": 7154,
      "Ġmarked": 7155,
      "Ġconverge": 7156,
      "gral": 7157,
      "dshift": 7158,
      "Ġtail": 7159,
      "oly": 7160,
      "kernel": 7161,
      "version": 7162,
      "Ġfine": 7163,
      "Ġblow": 7164,
      "ĠNext": 7165,
      "Ġcombining": 7166,
      "static": 7167,
      "/K": 7168,
      "images": 7169,
      "Ġtorus": 7170,
      "Ġposterior": 7171,
      "Ġfaces": 7172,
      "Ġreading": 7173,
      "Ġpolicies": 7174,
      "Ġculture": 7175,
      "ĠPolynomial": 7176,
      "ĠSuch": 7177,
      "Ġvanishes": 7178,
      "\\Box": 7179,
      "tained": 7180,
      "essage": 7181,
      "device": 7182,
      "Ġhierarch": 7183,
      "Ġcompan": 7184,
      "Ġtight": 7185,
      "Ġflexi": 7186,
      "Sigma": 7187,
      "Ġintensity": 7188,
      "find": 7189,
      "Ġinvest": 7190,
      "Ġconjugate": 7191,
      "Prop": 7192,
      "ĠSu": 7193,
      "hu": 7194,
      "Value": 7195,
      "Ġempirical": 7196,
      "Similarly": 7197,
      "Ġenable": 7198,
      "ĠValue": 7199,
      "Ġgate": 7200,
      "rational": 7201,
      "Ġtim": 7202,
      "olved": 7203,
      "lick": 7204,
      "going": 7205,
      "comb": 7206,
      "Ġintroduction": 7207,
      "Ġ\\&": 7208,
      "Ġsharing": 7209,
      "PC": 7210,
      "Ġfrequencies": 7211,
      "\\mathds": 7212,
      "Ġsl": 7213,
      "Furthermore": 7214,
      "Over": 7215,
      "Ġspent": 7216,
      "quee": 7217,
      "Mo": 7218,
      "Ġconsequences": 7219,
      "ĠBanach": 7220,
      "ko": 7221,
      "ichlet": 7222,
      "Ġmasses": 7223,
      "atorial": 7224,
      "Ġ\\binom": 7225,
      "ĠBob": 7226,
      "ĠHis": 7227,
      "Ġsun": 7228,
      "Ġreferences": 7229,
      "instein": 7230,
      "ĠĠĊĠ": 7231,
      "Ġinvertible": 7232,
      "traction": 7233,
      "^+(": 7234,
      "Ġ\\bigl": 7235,
      "Ġ\\par": 7236,
      "ws": 7237,
      "respe": 7238,
      "Ġmultiplic": 7239,
      "her": 7240,
      "Solution": 7241,
      "Ġatm": 7242,
      "tating": 7243,
      "\\be": 7244,
      "ĠMathematics": 7245,
      "tures": 7246,
      "Ġanalyzing": 7247,
      "surface": 7248,
      "Ġcong": 7249,
      "asons": 7250,
      "\\co": 7251,
      "ĠĠĠĠĠĠĠĠĊĠĠĠĠĠĠĠĠ": 7252,
      "dp": 7253,
      "Ġdecrease": 7254,
      "gnition": 7255,
      "Ġtechnologies": 7256,
      "ĠSer": 7257,
      "measure": 7258,
      "\\vect": 7259,
      "making": 7260,
      "Ġcubic": 7261,
      "Ġsharp": 7262,
      "Ġstorage": 7263,
      "Ġmarginal": 7264,
      "csv": 7265,
      "ceq": 7266,
      "ĠUnderstanding": 7267,
      "Ġdenominator": 7268,
      "\\K": 7269,
      "oci": 7270,
      "Ġconflic": 7271,
      "Ġletter": 7272,
      "Ġhtt": 7273,
      "Ġ\\put": 7274,
      "Total": 7275,
      "Ġsparse": 7276,
      "Ġhands": 7277,
      "Ġiniti": 7278,
      "er's": 7279,
      "ticles": 7280,
      "Car": 7281,
      "Ġfavor": 7282,
      "smooth": 7283,
      "Ġvoice": 7284,
      "ssive": 7285,
      "gument": 7286,
      "Ġtrajectory": 7287,
      "plain": 7288,
      "TH": 7289,
      "Ġturned": 7290,
      "ĠLean": 7291,
      "ĠâĪ§": 7292,
      "Ġplatform": 7293,
      "even": 7294,
      "Ġgenerates": 7295,
      "ĠSum": 7296,
      "Ġpercen": 7297,
      "Ġfascin": 7298,
      "\\Q": 7299,
      "Ġstay": 7300,
      "ech": 7301,
      "Ġacting": 7302,
      "weights": 7303,
      "Ġperspective": 7304,
      "description": 7305,
      "Ġnonnegative": 7306,
      "rep": 7307,
      "Ġfelt": 7308,
      "Ġim": 7309,
      "cknowled": 7310,
      "Ġdigit": 7311,
      "ups": 7312,
      "element": 7313,
      "ĠInstead": 7314,
      "Ġpd": 7315,
      "Ġ\\).": 7316,
      "Ġanything": 7317,
      "below": 7318,
      "erman": 7319,
      "Ġseed": 7320,
      "ĠBf": 7321,
      "ĠQf": 7322,
      "Corollary": 7323,
      "Define": 7324,
      "bug": 7325,
      "\\stackrel": 7326,
      "vo": 7327,
      "Ġvio": 7328,
      "ularities": 7329,
      "Ġfilled": 7330,
      "Ġbehaviour": 7331,
      "Ġcomplicated": 7332,
      "Ġfall": 7333,
      "Ġsort": 7334,
      "âĪĴ": 7335,
      "rays": 7336,
      "ĠĠx": 7337,
      "Ġregu": 7338,
      "Ġthread": 7339,
      "Ġplanet": 7340,
      "Ġmeters": 7341,
      "subset": 7342,
      "fies": 7343,
      "Ġstellar": 7344,
      "^{-}": 7345,
      "Ġlocated": 7346,
      "ĠĠThus": 7347,
      "tains": 7348,
      "Ġgave": 7349,
      "correspon": 7350,
      "itudes": 7351,
      "Ġtransport": 7352,
      "Ġpossibility": 7353,
      "ĠAccording": 7354,
      "depth": 7355,
      "\\:": 7356,
      "Ġminimize": 7357,
      "Ġmonoid": 7358,
      ":D": 7359,
      "ilo": 7360,
      "{}": 7361,
      "mitian": 7362,
      "ynamics": 7363,
      "ĠHar": 7364,
      "tably": 7365,
      "mental": 7366,
      "\\footnotesize": 7367,
      "Ġrecommend": 7368,
      "Ġgenus": 7369,
      "transform": 7370,
      "formula": 7371,
      "Ġcomparing": 7372,
      "Ġsymplectic": 7373,
      "Ġsuggest": 7374,
      "'m": 7375,
      "bt": 7376,
      "pg": 7377,
      "istry": 7378,
      "constra": 7379,
      "Ġmechanisms": 7380,
      "hspace": 7381,
      "ested": 7382,
      "Ġdifficul": 7383,
      "Ġ\\draw": 7384,
      "Ġpotentially": 7385,
      "SF": 7386,
      "vin": 7387,
      "%%": 7388,
      "Phys": 7389,
      "Ġswe": 7390,
      "Ġgraded": 7391,
      "ĠNotice": 7392,
      "gments": 7393,
      "fol": 7394,
      "ãģ": 7395,
      "magine": 7396,
      "boldsymbol": 7397,
      "Ġexploration": 7398,
      "Ġwrong": 7399,
      "Sec": 7400,
      "Ġlandsc": 7401,
      "simple": 7402,
      "Ġaware": 7403,
      "Ġbright": 7404,
      "http": 7405,
      "Â°": 7406,
      "angular": 7407,
      "Ġepoch": 7408,
      "âĨĳ": 7409,
      "Ġarm": 7410,
      "aux": 7411,
      "board": 7412,
      "Ġrefers": 7413,
      ":t": 7414,
      "Sta": 7415,
      "obo": 7416,
      "inomial": 7417,
      "secutive": 7418,
      "ager": 7419,
      "fn": 7420,
      "Ġusage": 7421,
      "Ġcorrection": 7422,
      "match": 7423,
      "zen": 7424,
      "Ġplus": 7425,
      "Ġsafety": 7426,
      "Ġbad": 7427,
      "stal": 7428,
      "ĠMathematical": 7429,
      "Ġscores": 7430,
      "constant": 7431,
      "itary": 7432,
      "GB": 7433,
      "velength": 7434,
      "Ġmys": 7435,
      "Ġcharacterized": 7436,
      "versely": 7437,
      "Ġdrawn": 7438,
      "Ġlabeled": 7439,
      "čĊĠĠĠ": 7440,
      "ec": 7441,
      "langle": 7442,
      "Ġautomorphism": 7443,
      ":E": 7444,
      "Ġdeterminant": 7445,
      "Ġnet": 7446,
      "^+)": 7447,
      "Ġtriple": 7448,
      "CF": 7449,
      "\\mathbbm": 7450,
      "dig": 7451,
      "ĠComm": 7452,
      "aylor": 7453,
      "margin": 7454,
      "sl": 7455,
      "Ġconclusions": 7456,
      "cuum": 7457,
      "ĠLog": 7458,
      "Ġsubgroups": 7459,
      "cv": 7460,
      "Ġdecided": 7461,
      "'}}": 7462,
      "Ġsaw": 7463,
      "hyper": 7464,
      "commu": 7465,
      "Ġdepic": 7466,
      "Ġmaintaining": 7467,
      "irichlet": 7468,
      "pq": 7469,
      "Ġparagraph": 7470,
      "'+": 7471,
      "nâĢĻt": 7472,
      "icity": 7473,
      "Ġprojects": 7474,
      "etermine": 7475,
      "Ġlaws": 7476,
      "Ġheavy": 7477,
      "wave": 7478,
      "equal": 7479,
      "Some": 7480,
      "Parameter": 7481,
      "Ġfeasible": 7482,
      "Ġeveryone": 7483,
      "Ġdiameter": 7484,
      "ji": 7485,
      "Ġblo": 7486,
      "Ġhomology": 7487,
      "timately": 7488,
      "oment": 7489,
      "phase": 7490,
      "ady": 7491,
      "Ġoscill": 7492,
      "\\vskip": 7493,
      "Ġsensitive": 7494,
      "Ġimmediate": 7495,
      "forts": 7496,
      "Ġcorrelations": 7497,
      "Ġremoved": 7498,
      "/-": 7499,
      "tization": 7500,
      "stituting": 7501,
      "Ġdecreases": 7502,
      "rice": 7503,
      "Ġsentences": 7504,
      "Ġnil": 7505,
      "ĠAlice": 7506,
      "ham": 7507,
      "Ġjusti": 7508,
      "acti": 7509,
      "Ġroll": 7510,
      "stackrel": 7511,
      "Ġelimin": 7512,
      "Ġ\\tfrac": 7513,
      "Ġcloser": 7514,
      "Ġsecure": 7515,
      "nm": 7516,
      "Ġspherical": 7517,
      "series": 7518,
      "Ġreflection": 7519,
      "ĠTheir": 7520,
      "Ġhost": 7521,
      "mas": 7522,
      "Ġdon": 7523,
      "Another": 7524,
      "'],": 7525,
      "Ġintermediate": 7526,
      "MO": 7527,
      "bp": 7528,
      "Ġque": 7529,
      "sequent": 7530,
      "Ġstudying": 7531,
      "txt": 7532,
      "Ġcircles": 7533,
      "Non": 7534,
      "lr": 7535,
      "\\bra": 7536,
      "ĠNxe": 7537,
      "brid": 7538,
      "ja": 7539,
      "ĠCheck": 7540,
      "etch": 7541,
      "ĠGal": 7542,
      "Ġcalculus": 7543,
      "except": 7544,
      "Ġwish": 7545,
      "Ġcountry": 7546,
      "Ġdecod": 7547,
      "Ġends": 7548,
      "pass": 7549,
      "othing": 7550,
      "Ġeventually": 7551,
      "Ġcarefully": 7552,
      "Ġdisper": 7553,
      "Ġoscil": 7554,
      "succ": 7555,
      "Ġcriteria": 7556,
      "ĠNxd": 7557,
      "ĠCur": 7558,
      "Ġscientific": 7559,
      "Ġ\\abs": 7560,
      "ader": 7561,
      "Ġatta": 7562,
      "Ġlooked": 7563,
      "\\V": 7564,
      "LU": 7565,
      "portation": 7566,
      "Ġ\\hbox": 7567,
      "Ġrefine": 7568,
      "operator": 7569,
      "hold": 7570,
      "haps": 7571,
      "Ġrel": 7572,
      "leg": 7573,
      "/H": 7574,
      "ĠCount": 7575,
      "chmark": 7576,
      "tot": 7577,
      "Ġvehic": 7578,
      "Ġvarying": 7579,
      "Ġcomputations": 7580,
      "Ġtalk": 7581,
      "Also": 7582,
      "Ġdiffer": 7583,
      "ao": 7584,
      "Ġpun": 7585,
      "Ġfan": 7586,
      "ĠTime": 7587,
      "^G": 7588,
      "ĠRc": 7589,
      "End": 7590,
      "Ġproduces": 7591,
      "Ġclosely": 7592,
      "\\,(": 7593,
      "Ġrecor": 7594,
      "Ġcircum": 7595,
      "ĠBorel": 7596,
      "\\State": 7597,
      "Ġcentered": 7598,
      "Ġdeterministic": 7599,
      "Ġcoupled": 7600,
      "Ġtuple": 7601,
      "Ġtransmission": 7602,
      "Ġyes": 7603,
      "uk": 7604,
      "Ġexten": 7605,
      "Ġlives": 7606,
      "Ġdev": 7607,
      "Ġlens": 7608,
      "rency": 7609,
      "Returns": 7610,
      "determin": 7611,
      "anted": 7612,
      "Ġcounting": 7613,
      "SV": 7614,
      "Ġordering": 7615,
      "Ġ\\newcommand": 7616,
      "Ġreci": 7617,
      "rea": 7618,
      "Ġchecks": 7619,
      ":\"": 7620,
      "json": 7621,
      "Ġtend": 7622,
      "reat": 7623,
      "\\smash": 7624,
      "Ġresis": 7625,
      "Ġcovered": 7626,
      "Ġtouch": 7627,
      "direct": 7628,
      "Ġcube": 7629,
      "Test": 7630,
      "\\downarrow": 7631,
      "ĠAlthough": 7632,
      "Ġupdated": 7633,
      "ĠRiemannian": 7634,
      "hookrightarrow": 7635,
      "Ġindependently": 7636,
      "identi": 7637,
      "Ġreplacing": 7638,
      "PO": 7639,
      "ĠĠĠĠĠĠĠĠĠĠĠĠĠĠĠĠĠĠĠĠĠĠĠ": 7640,
      "Ġ\\q": 7641,
      "riculum": 7642,
      "optimal": 7643,
      "Ġunderstood": 7644,
      "odd": 7645,
      "Ġbud": 7646,
      "Ġnormalization": 7647,
      "Ġcongru": 7648,
      "Ġplayed": 7649,
      "Ġmodify": 7650,
      "Ġconservation": 7651,
      "Ġsep": 7652,
      "poses": 7653,
      "Ġresponsible": 7654,
      "Ġuniqueness": 7655,
      "ĠRel": 7656,
      "Cho": 7657,
      "Ġletters": 7658,
      "Ġextensions": 7659,
      "^*_{": 7660,
      "igroup": 7661,
      "Ġbrain": 7662,
      "OOST": 7663,
      "Es": 7664,
      "Ġ\\noindent": 7665,
      "Class": 7666,
      "auti": 7667,
      "Ġdashed": 7668,
      "power": 7669,
      "Bu": 7670,
      "Ġcorrespondence": 7671,
      "^*$.": 7672,
      "Ġmental": 7673,
      "limit": 7674,
      "Ġradiation": 7675,
      "^K": 7676,
      "'')": 7677,
      "More": 7678,
      "Ġprivacy": 7679,
      "layers": 7680,
      "Ġinterse": 7681,
      "Ġimplicit": 7682,
      "Ġdf": 7683,
      "\\'{": 7684,
      "lik": 7685,
      "closed": 7686,
      "Ġdifferentiable": 7687,
      "Ġmodular": 7688,
      "Ġcandidate": 7689,
      "irs": 7690,
      "Ġengaging": 7691,
      "eks": 7692,
      "ĠBoth": 7693,
      "Ab": 7694,
      "Ġbits": 7695,
      "Ġhandling": 7696,
      "ĠKd": 7697,
      "dor": 7698,
      "rial": 7699,
      "Ġprefer": 7700,
      "arpoon": 7701,
      "ĠHy": 7702,
      "/C": 7703,
      "Ġglu": 7704,
      "Ġknew": 7705,
      "Ġfaith": 7706,
      "Ġcloud": 7707,
      "\\ee": 7708,
      "ĠTheore": 7709,
      "ĠQuantum": 7710,
      "rical": 7711,
      "'''": 7712,
      "Ġpromote": 7713,
      "loso": 7714,
      "Ġsched": 7715,
      "asymp": 7716,
      "cost": 7717,
      "Ġ<-": 7718,
      "Ġ\\\\[": 7719,
      "Ġidentifying": 7720,
      "separ": 7721,
      "hang": 7722,
      "html": 7723,
      "theo": 7724,
      "Key": 7725,
      "ĠEuro": 7726,
      "Ġpossibly": 7727,
      ":R": 7728,
      "Ġinfra": 7729,
      "graphy": 7730,
      "dable": 7731,
      "Tensor": 7732,
      "arent": 7733,
      "Frame": 7734,
      "Ġlooks": 7735,
      "independent": 7736,
      "tated": 7737,
      "Ġplas": 7738,
      "Ġefforts": 7739,
      "Ġsurjective": 7740,
      "figures": 7741,
      "Ġlost": 7742,
      "Get": 7743,
      "elect": 7744,
      "neigh": 7745,
      "ĠTest": 7746,
      "pad": 7747,
      "ĠBecause": 7748,
      "Ġduality": 7749,
      "samples": 7750,
      "ĠChe": 7751,
      "Ġconnecting": 7752,
      "roughout": 7753,
      "Ġethical": 7754,
      "AME": 7755,
      "Ġready": 7756,
      "Ġshapes": 7757,
      "Ġuniquely": 7758,
      "ĠIts": 7759,
      "Ġarise": 7760,
      "Two": 7761,
      "GM": 7762,
      "Ġreverse": 7763,
      "ords": 7764,
      "sole": 7765,
      "Ġemotional": 7766,
      "\\geqslant": 7767,
      "question": 7768,
      "lab": 7769,
      "Ġconcentration": 7770,
      "ips": 7771,
      "Ġtr": 7772,
      "Ġreferred": 7773,
      "Ġwall": 7774,
      "ĠĊĠĊ": 7775,
      "umerical": 7776,
      "given": 7777,
      "large": 7778,
      "Ġsolar": 7779,
      "titude": 7780,
      "Create": 7781,
      "Ġcosm": 7782,
      "Ġcoming": 7783,
      "Ġ\\bigcup": 7784,
      "algebras": 7785,
      "\\,}": 7786,
      "task": 7787,
      "Ġgovernment": 7788,
      "cp": 7789,
      "GS": 7790,
      "Ġclustering": 7791,
      "Ġprimes": 7792,
      "Ġfactorization": 7793,
      "Ġlimitations": 7794,
      "/q": 7795,
      "allow": 7796,
      "dex": 7797,
      "Ġcorner": 7798,
      "Ġcontinued": 7799,
      "Ġdro": 7800,
      "Ġreached": 7801,
      "Ġunity": 7802,
      "proj": 7803,
      "vie": 7804,
      "Ġclimate": 7805,
      "mathsf": 7806,
      "ĠClearly": 7807,
      "Ġemployed": 7808,
      "Ġinfinitely": 7809,
      "licial": 7810,
      "Ġrefle": 7811,
      "Ġconsecutive": 7812,
      "elp": 7813,
      "Ġmassive": 7814,
      "Array": 7815,
      "Ġsn": 7816,
      "\\Bigr": 7817,
      "Ġfacts": 7818,
      "Ġtransitions": 7819,
      "Ġconvenient": 7820,
      "Ġinfe": 7821,
      "Ġnarra": 7822,
      "related": 7823,
      "rl": 7824,
      "ĉ+": 7825,
      "Ġorganizations": 7826,
      "ĠAlex": 7827,
      "ĠĠAs": 7828,
      "Ġvalidation": 7829,
      "Ġcontrols": 7830,
      "Ġion": 7831,
      "Ġproven": 7832,
      "Ġcardin": 7833,
      "'',": 7834,
      "Ġanswers": 7835,
      "ĠâŁ": 7836,
      "Ġimaginary": 7837,
      "Ġagg": 7838,
      "card": 7839,
      "Ġequipped": 7840,
      "Ġseparation": 7841,
      "ĠChar": 7842,
      "amb": 7843,
      "Imp": 7844,
      "\\@": 7845,
      "Ġhash": 7846,
      "estima": 7847,
      "Ġsuc": 7848,
      "js": 7849,
      "uel": 7850,
      "iling": 7851,
      "GR": 7852,
      "ccc": 7853,
      "Ġlay": 7854,
      "fla": 7855,
      "Ġredshift": 7856,
      "ĠCl": 7857,
      "LA": 7858,
      "drop": 7859,
      ">]": 7860,
      "Ġconformal": 7861,
      "itting": 7862,
      "Ġmonths": 7863,
      "itle": 7864,
      "Ġferm": 7865,
      "pes": 7866,
      "ctiveness": 7867,
      "Ġlists": 7868,
      "PA": 7869,
      "Ġcustomers": 7870,
      "Ext": 7871,
      "similar": 7872,
      "Ġassistant": 7873,
      "Ġfoot": 7874,
      "Ġwidely": 7875,
      "UE": 7876,
      "Ġspeak": 7877,
      "Ġanalytical": 7878,
      "Ġpercentage": 7879,
      "\\vee": 7880,
      "Ġmir": 7881,
      "ĠNg": 7882,
      "Linear": 7883,
      "span": 7884,
      "control": 7885,
      "Aut": 7886,
      "Ġtheorems": 7887,
      "Ġdelay": 7888,
      "Ġoptimize": 7889,
      "Cl": 7890,
      "verb": 7891,
      "Ġancient": 7892,
      "Pre": 7893,
      "sat": 7894,
      "Ġ\\vdots": 7895,
      "Ġincident": 7896,
      "Function": 7897,
      "\\smallskip": 7898,
      "widetilde": 7899,
      "Ġplant": 7900,
      "journal": 7901,
      "Ġfractions": 7902,
      "ĠExamples": 7903,
      "Ġstories": 7904,
      "Notice": 7905,
      "Ġbos": 7906,
      "Log": 7907,
      "green": 7908,
      "ï¼": 7909,
      "SRS": 7910,
      "ĠAdv": 7911,
      "Ġexceed": 7912,
      "Ġordinary": 7913,
      "ĠAmerican": 7914,
      "Ġdiver": 7915,
      "Ġcamp": 7916,
      "ube": 7917,
      "^+}": 7918,
      "Problem": 7919,
      "\\cr": 7920,
      "^e": 7921,
      "ux": 7922,
      "Ġdetermines": 7923,
      "MB": 7924,
      "Ġplaying": 7925,
      "actor": 7926,
      "kwargs": 7927,
      "asis": 7928,
      "Ġintern": 7929,
      "ĠHigh": 7930,
      "ĠĠwhere": 7931,
      "Ġmil": 7932,
      "Ġpreserving": 7933,
      "global": 7934,
      "ĠInt": 7935,
      "\\fill": 7936,
      "tration": 7937,
      "unch": 7938,
      "Ġfascinating": 7939,
      "Ġago": 7940,
      "Ġexhibit": 7941,
      "File": 7942,
      "Ġgir": 7943,
      "uint": 7944,
      "Ġfluctuations": 7945,
      "Ġnews": 7946,
      "Ġcontroll": 7947,
      "cerning": 7948,
      "ĠčĊčĊ": 7949,
      "Ġ\\ne": 7950,
      "HT": 7951,
      "Matrix": 7952,
      "\\phantom": 7953,
      "\\I": 7954,
      "Ġrecover": 7955,
      "ĠEvery": 7956,
      "iral": 7957,
      "ĠNewton": 7958,
      "^H": 7959,
      "asic": 7960,
      "Ġreads": 7961,
      "ptr": 7962,
      "Ġpages": 7963,
      "ĠAny": 7964,
      "Ġuncertain": 7965,
      "Ġadmissible": 7966,
      "ĠApplying": 7967,
      "Ġalone": 7968,
      "Ġiff": 7969,
      "noise": 7970,
      "cknowledge": 7971,
      ":ex": 7972,
      "oday": 7973,
      "oto": 7974,
      "ĠPe": 7975,
      "Fix": 7976,
      "She": 7977,
      "Ġful": 7978,
      "FS": 7979,
      "mk": 7980,
      "orry": 7981,
      "Ġspirit": 7982,
      "Ġfourth": 7983,
      "Ġdetect": 7984,
      "\\,$": 7985,
      "thentic": 7986,
      "Ġassigned": 7987,
      "Ġderivation": 7988,
      "bibnamefont": 7989,
      "Ġtitle": 7990,
      "ulate": 7991,
      "¿½": 7992,
      "rick": 7993,
      "Ġformer": 7994,
      "ĠSecond": 7995,
      "arah": 7996,
      "respectively": 7997,
      "ressive": 7998,
      "ĉLet": 7999,
      "leton": 8000,
      "Ġmixing": 8001,
      "ĠCent": 8002,
      "Ġconnect": 8003,
      "\\hfill": 8004,
      "Ġdividing": 8005,
      "Ġsegments": 8006,
      "copy": 8007,
      "processing": 8008,
      "Statement": 8009,
      "Tor": 8010,
      "Ġradio": 8011,
      "Ġtot": 8012,
      "citep": 8013,
      "/r": 8014,
      "Ġmolecular": 8015,
      "imod": 8016,
      "take": 8017,
      "Ġingre": 8018,
      "unic": 8019,
      "BB": 8020,
      "Ġlowest": 8021,
      "rin": 8022,
      "Ġconsistency": 8023,
      "Ġimpossible": 8024,
      "requency": 8025,
      "Ġxs": 8026,
      "Ġseparated": 8027,
      "Ġnontrivial": 8028,
      "tem": 8029,
      "Ġvanishing": 8030,
      "Ġproperly": 8031,
      "Ġexamine": 8032,
      "sted": 8033,
      "mari": 8034,
      "\\textsf": 8035,
      "tios": 8036,
      "Ġ\\notin": 8037,
      "hd": 8038,
      "Ġrou": 8039,
      "ogen": 8040,
      "Ġreasons": 8041,
      "DR": 8042,
      "Ġcompar": 8043,
      "eratures": 8044,
      "ille": 8045,
      "Ġplatforms": 8046,
      "Ġmember": 8047,
      "Ġtrust": 8048,
      "Ġcreates": 8049,
      "pers": 8050,
      "nodes": 8051,
      "ï¿½": 8052,
      "tran": 8053,
      "unique": 8054,
      "Ġidentification": 8055,
      "Ġupdates": 8056,
      "Ġaspect": 8057,
      "amily": 8058,
      "ĠBxf": 8059,
      "Ġadditive": 8060,
      "insic": 8061,
      "Ġcountable": 8062,
      "Ġreality": 8063,
      "Ġclient": 8064,
      "Ġreveal": 8065,
      "/L": 8066,
      "Ġrecord": 8067,
      "Ġmedian": 8068,
      "Ġtoken": 8069,
      "âĶ": 8070,
      "Ġcombine": 8071,
      "Ġguarantee": 8072,
      "IL": 8073,
      "Ġdtype": 8074,
      "Ġbecame": 8075,
      "Ġbalanced": 8076,
      "sm": 8077,
      "Ġguide": 8078,
      "Ġidentities": 8079,
      "Yes": 8080,
      "Ġstands": 8081,
      "Ġmedium": 8082,
      "Ġaudience": 8083,
      "\\\"{": 8084,
      "quality": 8085,
      "Ġwomen": 8086,
      "Ġdaily": 8087,
      "radius": 8088,
      "kens": 8089,
      "'),": 8090,
      "Ġdeveloping": 8091,
      "Ġphotons": 8092,
      "iliary": 8093,
      "Fun": 8094,
      "Ġprimitive": 8095,
      "Ġdetected": 8096,
      "..": 8097,
      "Ġpolarization": 8098,
      "Ġlocations": 8099,
      "scopic": 8100,
      "ĠStud": 8101,
      "Ġcuri": 8102,
      "pf": 8103,
      "NO": 8104,
      "Ġmorphisms": 8105,
      "subseteq": 8106,
      "Ġneither": 8107,
      "ĠState": 8108,
      "ĠĊĠĠĠĠĠĠ": 8109,
      "push": 8110,
      "Ġsensitivity": 8111,
      "Ġtal": 8112,
      "cker": 8113,
      "Ġautomatically": 8114,
      "Ġenergies": 8115,
      "Py": 8116,
      "ĠĠĠĠĠĠĠĠĠĠĠĠĠĠĠĠĠĠĠĠĠĠĠĠĠ": 8117,
      "Ġcoincides": 8118,
      "ĠEurope": 8119,
      "olar": 8120,
      "nti": 8121,
      "Ġactivation": 8122,
      "ĠGuidelines": 8123,
      "Ġdiscovered": 8124,
      "Ġdiscussions": 8125,
      "pop": 8126,
      "abor": 8127,
      "uge": 8128,
      "Ġrings": 8129,
      "Ġlinks": 8130,
      "Ġdiffe": 8131,
      "FA": 8132,
      ":X": 8133,
      "Ġcopies": 8134,
      "Ġsubsta": 8135,
      "teness": 8136,
      "Div": 8137,
      "Ġplaces": 8138,
      "degenerate": 8139,
      "Ġsustainable": 8140,
      "Ġsoon": 8141,
      "Ġdiscover": 8142,
      "ĠMin": 8143,
      "Ġvacuum": 8144,
      "operatorname": 8145,
      "ĠOnce": 8146,
      "Translate": 8147,
      "&+": 8148,
      "ĠRad": 8149,
      "integra": 8150,
      "ĠRiemann": 8151,
      "\\column": 8152,
      "sky": 8153,
      "''(": 8154,
      "Ġvariations": 8155,
      "Ġmaster": 8156,
      "Ref": 8157,
      "Ġdetermining": 8158,
      "NE": 8159,
      "rarily": 8160,
      "how": 8161,
      "ĠLy": 8162,
      "env": 8163,
      "nam": 8164,
      "Ġmoduli": 8165,
      "\\special": 8166,
      "Ġsorted": 8167,
      "Ġ++": 8168,
      "Ġ\\mathop": 8169,
      "nergy": 8170,
      "Ġemail": 8171,
      "osphere": 8172,
      "Ġ\\Rightarrow": 8173,
      "Ġpapers": 8174,
      "multip": 8175,
      "Ġcircular": 8176,
      "ĠAss": 8177,
      "parser": 8178,
      "sem": 8179,
      "ING": 8180,
      "token": 8181,
      "Ġoverview": 8182,
      "Ġindicating": 8183,
      "Ġnorms": 8184,
      "Ġserve": 8185,
      "Graph": 8186,
      "Node": 8187,
      "\\underset": 8188,
      "jectives": 8189,
      "Ġaccomp": 8190,
      "sword": 8191,
      "ĠSc": 8192,
      "dif": 8193,
      "ĠBu": 8194,
      "\\overrightarrow": 8195,
      "UR": 8196,
      "ĠGreen": 8197,
      "ĠĠcon": 8198,
      "lices": 8199,
      "Ġsingularities": 8200,
      "chor": 8201,
      "Ġmultiplicity": 8202,
      "Ġsimilarity": 8203,
      "Ġautoma": 8204,
      "LM": 8205,
      "Ġdemonstrated": 8206,
      "ĠAbstraction": 8207,
      "ĠText": 8208,
      "ĠBa": 8209,
      "Ġinten": 8210,
      "Conclusion": 8211,
      "/S": 8212,
      "Ġextreme": 8213,
      "ĠChoose": 8214,
      "Ġoriented": 8215,
      "ĉ1": 8216,
      "fg": 8217,
      "Ġpermutations": 8218,
      "Ġguidelines": 8219,
      "classes": 8220,
      "basis": 8221,
      "ĠTwo": 8222,
      "Ġtrajectories": 8223,
      "Ġinterpolation": 8224,
      "Ġcorollary": 8225,
      "fl": 8226,
      "Ġwent": 8227,
      "dv": 8228,
      "Ġcharacterization": 8229,
      "\\|_\\": 8230,
      "CR": 8231,
      "Ġideals": 8232,
      "Ġtopics": 8233,
      "ees": 8234,
      "placement": 8235,
      "^*$,": 8236,
      "opf": 8237,
      "Solving": 8238,
      "ĠTechn": 8239,
      "Ġstatus": 8240,
      "\\_\\_": 8241,
      "iso": 8242,
      "Ġengineering": 8243,
      "epoch": 8244,
      "Ġtax": 8245,
      "Ġnuclear": 8246,
      "Ġconsum": 8247,
      "Min": 8248,
      "Ġequivalently": 8249,
      "Ġsector": 8250,
      "Ġcovers": 8251,
      "ĠPri": 8252,
      "Ġsubsequent": 8253,
      "Ġstre": 8254,
      "Ġthanks": 8255,
      "Ġliving": 8256,
      "variate": 8257,
      "Ġcalculating": 8258,
      "particle": 8259,
      "Ġsuggested": 8260,
      "Ġloops": 8261,
      "Ġaux": 8262,
      "lement": 8263,
      "tax": 8264,
      "Ġyourself": 8265,
      ":k": 8266,
      "Dist": 8267,
      "Ġmessages": 8268,
      "best": 8269,
      "ĠPlan": 8270,
      "Ġleaving": 8271,
      "ĠUnder": 8272,
      "izable": 8273,
      "Ġpossibilities": 8274,
      "Ġsubsequence": 8275,
      "density": 8276,
      "iggs": 8277,
      "unk": 8278,
      "Ġ\\bigr": 8279,
      "Ġacqu": 8280,
      "ĠSRS": 8281,
      "Ġnoted": 8282,
      "Ġsales": 8283,
      "Ġisn't": 8284,
      "Ġexd": 8285,
      "variable": 8286,
      "Open": 8287,
      "\\overset": 8288,
      "singular": 8289,
      "odies": 8290,
      "Ġsociety": 8291,
      "good": 8292,
      "Ġsimpler": 8293,
      "Ġinser": 8294,
      "bool": 8295,
      "aten": 8296,
      "Ġprepar": 8297,
      "Ġelectrons": 8298,
      "Ġsurvey": 8299,
      "Ġtables": 8300,
      "ratio": 8301,
      "Ġtwist": 8302,
      "\\columnwidth": 8303,
      "Ġsites": 8304,
      "Ġparametri": 8305,
      "ĠLearning": 8306,
      "Top": 8307,
      "NP": 8308,
      "SR": 8309,
      "Ġ\\:": 8310,
      "Ġcurrently": 8311,
      ":K": 8312,
      "ĠNational": 8313,
      "Ġadjoint": 8314,
      "choice": 8315,
      "Ġphenomenon": 8316,
      "rap": 8317,
      "learning": 8318,
      "Ġtraffic": 8319,
      "Ġmatches": 8320,
      "ĠFurther": 8321,
      "Ġplots": 8322,
      "bian": 8323,
      "/{\\": 8324,
      "\\Bigl": 8325,
      "LR": 8326,
      "isy": 8327,
      "Ġcancel": 8328,
      "kov": 8329,
      "Ġfocusing": 8330,
      "Ġmovement": 8331,
      "Ġ\\notag": 8332,
      "Ġresidual": 8333,
      "Ġpurch": 8334,
      "Ġbon": 8335,
      "ĠFo": 8336,
      "smallmatrix": 8337,
      "Ġsimplified": 8338,
      "DD": 8339,
      "čĊĠĠĠĠĠĠĠĠĠĠĠĠĠĠĠĠ": 8340,
      "Up": 8341,
      "ĠMethod": 8342,
      "Vector": 8343,
      "Ġpairwise": 8344,
      "Ġensemble": 8345,
      "Ġbur": 8346,
      "efficient": 8347,
      "Ġimplementing": 8348,
      "mati": 8349,
      "ilinear": 8350,
      "Ġpossess": 8351,
      "Wh": 8352,
      "Ġdeformation": 8353,
      "Ġ's": 8354,
      "diagonal": 8355,
      "ĠOutput": 8356,
      "ĠĠH": 8357,
      "Ġtransformed": 8358,
      "lligence": 8359,
      "utation": 8360,
      "ĠID": 8361,
      "\\xy": 8362,
      "Ġspecify": 8363,
      "Ġseparately": 8364,
      "dia": 8365,
      "umann": 8366,
      "meta": 8367,
      "Nat": 8368,
      "ĠBra": 8369,
      "ĠDirichlet": 8370,
      "Remark": 8371,
      "conf": 8372,
      "Ġpublish": 8373,
      "Ġpolitical": 8374,
      "Ġminor": 8375,
      "ĠImplement": 8376,
      "Ġseman": 8377,
      "Ġpreserves": 8378,
      "training": 8379,
      "ineq": 8380,
      "^{-(": 8381,
      "Ġthat's": 8382,
      "rane": 8383,
      "Ġwanted": 8384,
      "Ġpartitions": 8385,
      "Ġorganization": 8386,
      "Ġpresentation": 8387,
      "Ġblood": 8388,
      "learn": 8389,
      "autoref": 8390,
      "Ġcollaboration": 8391,
      "Ġflows": 8392,
      "Ġreasonable": 8393,
      "/c": 8394,
      "^R": 8395,
      "Ġplaced": 8396,
      "Col": 8397,
      "Ġresearchers": 8398,
      "ĠTop": 8399,
      "Ġintegrable": 8400,
      "Ġpassed": 8401,
      "\\Upsilon": 8402,
      "parent": 8403,
      "Â³": 8404,
      "ires": 8405,
      "losoph": 8406,
      "Ġcollected": 8407,
      "Ġwebsite": 8408,
      "tracting": 8409,
      "Ġplease": 8410,
      "boundary": 8411,
      "Sim": 8412,
      "Ġrever": 8413,
      "Ġcaused": 8414,
      "tesian": 8415,
      "Ġisolated": 8416,
      "ĠUp": 8417,
      "Ġbreaking": 8418,
      "Ġcxd": 8419,
      "ident": 8420,
      "Work": 8421,
      "Ġintricate": 8422,
      "Ġrequirement": 8423,
      "Ġdelve": 8424,
      "Ġstored": 8425,
      "hn": 8426,
      "create": 8427,
      "clear": 8428,
      "Ġdominant": 8429,
      "akes": 8430,
      "ĠAPI": 8431,
      "life": 8432,
      "Ġbijection": 8433,
      "some": 8434,
      "Ġarbitrarily": 8435,
      "Ġbundles": 8436,
      "stri": 8437,
      "Ġinvariants": 8438,
      "Ġtorsion": 8439,
      "Ġpromoting": 8440,
      "oogle": 8441,
      "Ġneighbors": 8442,
      "Ġparabolic": 8443,
      "distribution": 8444,
      "Ġdirectory": 8445,
      "imeter": 8446,
      "Ġcomments": 8447,
      "Ġwants": 8448,
      "TEP": 8449,
      "Ġanom": 8450,
      "Ġtends": 8451,
      "Ġsens": 8452,
      "ckets": 8453,
      "cribed": 8454,
      "čĊĉĉĉ": 8455,
      "rely": 8456,
      "post": 8457,
      "Ġplt": 8458,
      "Ġretrie": 8459,
      "Ġunless": 8460,
      "ĠMor": 8461,
      "Ġthin": 8462,
      "\\z": 8463,
      "Ġenjoy": 8464,
      "Ġplanning": 8465,
      "Ġdensities": 8466,
      "theory": 8467,
      "ĠNot": 8468,
      "Ser": 8469,
      "Ġcontrolled": 8470,
      "Ġprivate": 8471,
      "Ġsell": 8472,
      "Ġassignment": 8473,
      "arc": 8474,
      "Ġcarbon": 8475,
      "numpy": 8476,
      "property": 8477,
      "Ġcreation": 8478,
      "Ġparent": 8479,
      "character": 8480,
      "liers": 8481,
      "ĠQb": 8482,
      "Ġvarieties": 8483,
      "Ġlandscape": 8484,
      "ĠÎ¹": 8485,
      "Ġdoor": 8486,
      "venue": 8487,
      "ensive": 8488,
      "Ġ\\),": 8489,
      "km": 8490,
      "ĠRead": 8491,
      "phot": 8492,
      "gf": 8493,
      "Ġcarried": 8494,
      "bracket": 8495,
      "Ġhealthcare": 8496,
      "ĠI've": 8497,
      "entence": 8498,
      "Ġsingularity": 8499,
      "Ġbases": 8500,
      "usted": 8501,
      "Ġmultiplying": 8502,
      "Ġemphasi": 8503,
      "Ġpurposes": 8504,
      "periodic": 8505,
      "Ġrad": 8506,
      "Ġaccurately": 8507,
      "^-$": 8508,
      "besgue": 8509,
      "\\STATE": 8510,
      "Ġtrends": 8511,
      "host": 8512,
      "TS": 8513,
      "Ġcontinues": 8514,
      "Ġcardinality": 8515,
      "Ġtemporal": 8516,
      "Ġphases": 8517,
      "Ġsheaf": 8518,
      "Ġbreath": 8519,
      "changed": 8520,
      "Ġpartially": 8521,
      "Ġseparable": 8522,
      "Ġlive": 8523,
      "\\Bigg": 8524,
      "Ġgrowing": 8525,
      "ĠRb": 8526,
      "edia": 8527,
      "ĠTheory": 8528,
      "DC": 8529,
      "Ġdriving": 8530,
      "dorff": 8531,
      "ĠUnited": 8532,
      "Ġembeddings": 8533,
      "OM": 8534,
      "argument": 8535,
      "Ġaccessible": 8536,
      ":N": 8537,
      "Ġorganized": 8538,
      "ĠWrite": 8539,
      "Ġtemperatures": 8540,
      "edges": 8541,
      "Ġwavelength": 8542,
      "query": 8543,
      "stmt": 8544,
      ":e": 8545,
      "BA": 8546,
      "Ġapples": 8547,
      "gacy": 8548,
      "riction": 8549,
      "Ġjoin": 8550,
      "Ġconsiderations": 8551,
      "Ġenables": 8552,
      "Ġencoding": 8553,
      "rome": 8554,
      "Ġ\\under": 8555,
      "Ġdespite": 8556,
      "izers": 8557,
      "Ġhot": 8558,
      "Ġintersect": 8559,
      "inding": 8560,
      "dens": 8561,
      "soft": 8562,
      "^+_": 8563,
      "Ġencry": 8564,
      "lder": 8565,
      "ructure": 8566,
      "\\scriptstyle": 8567,
      "Ġcommonly": 8568,
      "Ġcrypto": 8569,
      "missions": 8570,
      "oses": 8571,
      "Ġ\\#": 8572,
      "avi": 8573,
      "ĉĉĉĉĉĉĉĉ": 8574,
      "between": 8575,
      "measu": 8576,
      "px": 8577,
      "apes": 8578,
      "Index": 8579,
      "Ġneighbour": 8580,
      "Ġguarantees": 8581,
      "Ġdivergence": 8582,
      "lax": 8583,
      "ĠSU": 8584,
      "hes": 8585,
      "Ġwit": 8586,
      "ĠNetwork": 8587,
      "XX": 8588,
      "Ġassertion": 8589,
      "dashed": 8590,
      "Ġdesc": 8591,
      "ĉ}": 8592,
      "Ġdust": 8593,
      "Ġpatch": 8594,
      "Ġbuy": 8595,
      "Ġacceleration": 8596,
      "Ġintegrated": 8597,
      "bounds": 8598,
      "solution": 8599,
      "Ġdescribing": 8600,
      "notation": 8601,
      "Ġfilm": 8602,
      "Ġdeath": 8603,
      "hard": 8604,
      "Ġnearest": 8605,
      "Ġadapt": 8606,
      "Ġchanged": 8607,
      "Gu": 8608,
      "keys": 8609,
      "ĠDenote": 8610,
      "Ġdoll": 8611,
      "Ġperspectives": 8612,
      "rot": 8613,
      "''$": 8614,
      "ani": 8615,
      "Ġnut": 8616,
      "aster": 8617,
      "/a": 8618,
      "ĠSk": 8619,
      "Ġmixture": 8620,
      "Ġhappen": 8621,
      "\\circle": 8622,
      "Ġviewed": 8623,
      "Ġremoving": 8624,
      "ĊĊĊĊĊĊ": 8625,
      "scope": 8626,
      "Ġregularization": 8627,
      "Ġcounts": 8628,
      "script": 8629,
      "Ġmonotone": 8630,
      "auss": 8631,
      "Ġenvironments": 8632,
      "utine": 8633,
      "Pi": 8634,
      "Ġreceive": 8635,
      "lore": 8636,
      "Ġsky": 8637,
      "\\Re": 8638,
      "Ġtells": 8639,
      "Ġrecursive": 8640,
      "Ġlimiting": 8641,
      "/M": 8642,
      "\\uparrow": 8643,
      "Ġnice": 8644,
      "\\rule": 8645,
      "Ġ\\rfloor": 8646,
      "Ġdemonstrates": 8647,
      "Ġcountries": 8648,
      "defin": 8649,
      "pacity": 8650,
      "\\pmb": 8651,
      ":re": 8652,
      "ĠQxd": 8653,
      "Ġrecognition": 8654,
      "Ġimagine": 8655,
      "Ġnearly": 8656,
      "ĠĠP": 8657,
      "Ġbutton": 8658,
      "Ġprofessional": 8659,
      "GD": 8660,
      "atest": 8661,
      "erson": 8662,
      "ĠOf": 8663,
      "Ġwonder": 8664,
      "oung": 8665,
      "Ġdou": 8666,
      "Ġdealing": 8667,
      "alois": 8668,
      "quid": 8669,
      "oking": 8670,
      "critical": 8671,
      "Ġapproximations": 8672,
      "Ġfinds": 8673,
      "Ġmyself": 8674,
      "Ġskew": 8675,
      "ifications": 8676,
      "Ġsafe": 8677,
      "\\scriptscriptstyle": 8678,
      "Bound": 8679,
      "Ġwarm": 8680,
      "ony": 8681,
      "Ġratios": 8682,
      "summa": 8683,
      "riend": 8684,
      "Based": 8685,
      "Ġdrive": 8686,
      "eng": 8687,
      "standard": 8688,
      "ĠQg": 8689,
      "address": 8690,
      "ĠTaylor": 8691,
      "ril": 8692,
      "Ġtried": 8693,
      "ĠĠare": 8694,
      "being": 8695,
      "Ġdetector": 8696,
      "Ġinformed": 8697,
      "pages": 8698,
      "Ġsurv": 8699,
      "Ġrelaxation": 8700,
      "ĠDirac": 8701,
      "Ġlegal": 8702,
      "Ġreconstruction": 8703,
      "Ġnn": 8704,
      "feature": 8705,
      "^+\\": 8706,
      "Ġmor": 8707,
      "Ġcali": 8708,
      "Ġcalls": 8709,
      "rup": 8710,
      "Ġaug": 8711,
      "obolev": 8712,
      "Ġweeks": 8713,
      "inuous": 8714,
      "single": 8715,
      "')}": 8716,
      "ausdorff": 8717,
      "Answer": 8718,
      "Ġadvers": 8719,
      "ruggle": 8720,
      "\\sh": 8721,
      "cking": 8722,
      "Su": 8723,
      "Ġeffectiveness": 8724,
      "Ġcoding": 8725,
      "written": 8726,
      "Ġdecimal": 8727,
      "rw": 8728,
      "Ġcombinatorial": 8729,
      "Ġfitting": 8730,
      "TM": 8731,
      "Ġsteady": 8732,
      "ĠAssumption": 8733,
      "Compute": 8734,
      "Path": 8735,
      "uristic": 8736,
      "cious": 8737,
      "Ġplanar": 8738,
      "Ġfoundation": 8739,
      "rew": 8740,
      "encing": 8741,
      "Ġrestrict": 8742,
      "ĠĠD": 8743,
      "accu": 8744,
      "Ġeffort": 8745,
      "numbers": 8746,
      "Ġbipartite": 8747,
      "Ġsimulated": 8748,
      "Ġrigid": 8749,
      "onents": 8750,
      "ĠĠM": 8751,
      "Ġfamili": 8752,
      "ĠLinear": 8753,
      "ĠBayesian": 8754,
      "rownian": 8755,
      "sal": 8756,
      "<p": 8757,
      "ara": 8758,
      "ĠSupp": 8759,
      "ĠImpor": 8760,
      "god": 8761,
      "Ġdrawing": 8762,
      "âŁ©": 8763,
      "ĠIN": 8764,
      "Ġdiversity": 8765,
      ">\\<^": 8766,
      "Ġbudget": 8767,
      "mulate": 8768,
      "Com": 8769,
      "types": 8770,
      "bur": 8771,
      "Ġsubstitute": 8772,
      "ĠBer": 8773,
      "Ġarises": 8774,
      "Ġpointer": 8775,
      "Ed": 8776,
      "Ġexecution": 8777,
      "ĠCR": 8778,
      "\\multirow": 8779,
      "Ġfish": 8780,
      "tandard": 8781,
      "Ġnumerically": 8782,
      "linder": 8783,
      "Ġperforms": 8784,
      "aught": 8785,
      "Ġfocused": 8786,
      "GH": 8787,
      "Ġbirth": 8788,
      "ķľ": 8789,
      "ĠOtherwise": 8790,
      "Ġ\\stackrel": 8791,
      "Color": 8792,
      "Ġsleep": 8793,
      "/T": 8794,
      "hion": 8795,
      "reordered": 8796,
      "~~~~~~~~": 8797,
      "qubit": 8798,
      "homogeneous": 8799,
      "ocab": 8800,
      "room": 8801,
      "ĠGet": 8802,
      "Ġtransverse": 8803,
      "Ġkeys": 8804,
      "Ġbulk": 8805,
      "att": 8806,
      "Ġintegrating": 8807,
      "ae": 8808,
      "Ġfails": 8809,
      "Ġparty": 8810,
      "\\square": 8811,
      "Ġ\\inf": 8812,
      "icular": 8813,
      "Ġversions": 8814,
      "Ġbriefly": 8815,
      "Ġvariational": 8816,
      "embedding": 8817,
      "ĠProvide": 8818,
      "\\citenamefont": 8819,
      "quantum": 8820,
      "Indeed": 8821,
      "enberg": 8822,
      "Ġcouldn't": 8823,
      "Ġstruggle": 8824,
      "Ġmolecules": 8825,
      "Main": 8826,
      "Ġpad": 8827,
      "Cla": 8828,
      "Ġintroducing": 8829,
      "Ġpuzz": 8830,
      "ĠVari": 8831,
      "uses": 8832,
      "****": 8833,
      "Char": 8834,
      "ĠFer": 8835,
      "inputs": 8836,
      "Ġisinstance": 8837,
      "stab": 8838,
      "fortun": 8839,
      "Ġpointed": 8840,
      "adjoint": 8841,
      "Ring": 8842,
      "Ġreward": 8843,
      "Ġreturned": 8844,
      "thonormal": 8845,
      "Ġ\\set": 8846,
      "Ġsend": 8847,
      "OP": 8848,
      "Question": 8849,
      "ilistic": 8850,
      "\\xymatrix": 8851,
      "hline": 8852,
      "Ġillustrated": 8853,
      "ĉ\\caption": 8854,
      "Ġnotic": 8855,
      "\\mat": 8856,
      "Ġarrive": 8857,
      "Ġamounts": 8858,
      "nos": 8859,
      "^B": 8860,
      "ĠâĦĤ": 8861,
      "/x": 8862,
      "effe": 8863,
      "rat": 8864,
      "owski": 8865,
      "ssification": 8866,
      "pendicular": 8867,
      "âĢ¦": 8868,
      "Ġemotions": 8869,
      "ĠRed": 8870,
      "Ġsimplifies": 8871,
      "idelity": 8872,
      "positions": 8873,
      "gi": 8874,
      "ĠTake": 8875,
      "Ġcrossing": 8876,
      "Ġevaluating": 8877,
      "Ġfigures": 8878,
      "cluding": 8879,
      "ĠOpen": 8880,
      "Ġsquared": 8881,
      "Ġchains": 8882,
      "MT": 8883,
      "Ġ\\arrow": 8884,
      "ĠEven": 8885,
      "/{": 8886,
      "Ġrights": 8887,
      "Second": 8888,
      "Ġnumerous": 8889,
      "ypes": 8890,
      "Ġdispla": 8891,
      "Ġfits": 8892,
      "sis": 8893,
      "ĠGraph": 8894,
      "potent": 8895,
      "inds": 8896,
      "component": 8897,
      "Ġdivisors": 8898,
      "Ġmyster": 8899,
      "Ġprobably": 8900,
      "Ġcoincide": 8901,
      "Ġmoti": 8902,
      "MF": 8903,
      "Ġchance": 8904,
      "Ġleaf": 8905,
      "Ġnod": 8906,
      "ĠEnc": 8907,
      "Ġvoid": 8908,
      "Ġinnovation": 8909,
      "Ġlate": 8910,
      "Ġultra": 8911,
      "Ġsubspaces": 8912,
      "cated": 8913,
      "Ġpropagation": 8914,
      "';": 8915,
      "Ġadmit": 8916,
      "ĠDiffere": 8917,
      "will": 8918,
      "sym": 8919,
      "Ġsal": 8920,
      "Ġprompt": 8921,
      "Ġnotations": 8922,
      "ĉĉĊĉĉ": 8923,
      "ĠTho": 8924,
      "Ġinternational": 8925,
      "Ġauxiliary": 8926,
      "seed": 8927,
      "Ġweather": 8928,
      "tect": 8929,
      "\\mkern": 8930,
      "I'm": 8931,
      "Ġpresents": 8932,
      "ormed": 8933,
      "ultural": 8934,
      "Ġill": 8935,
      "Ġsignature": 8936,
      "ĠMake": 8937,
      "Ġoverlap": 8938,
      "Ġqueries": 8939,
      "Ġneur": 8940,
      "Ġutility": 8941,
      "Ġvisit": 8942,
      "Ġpsy": 8943,
      "Val": 8944,
      "Because": 8945,
      "Ġsuccessfully": 8946,
      "hist": 8947,
      "ĠĠd": 8948,
      "Ġmultiplicative": 8949,
      "ĠFix": 8950,
      "because": 8951,
      "Ġdedic": 8952,
      "assumption": 8953,
      "tyle": 8954,
      "define": 8955,
      "Ġasymptotically": 8956,
      "ĠWorld": 8957,
      "Ġinterpreted": 8958,
      "Ġprofit": 8959,
      "Ġsmart": 8960,
      "Ġsimplicial": 8961,
      ">,": 8962,
      "acci": 8963,
      "Ġrely": 8964,
      "Ġlogarithmic": 8965,
      "ann": 8966,
[...]
